▁, 2618008
▁the 2179074
▁. 1686834
। 1269559
▁of 1072494
▁to 943177
▁and 807294
▁in 701969
▁र 669268
; 668626
▁& 663071
को 659284
मा 609581
▁a 579176
s 558366
ले 450743
apos 428797
▁is 418378
का 408935
▁छ 405318
ing 324439
▁that 321932
लाई 284234
▁for 278496
▁The 269534
▁- 257050
▁( 246181
ed 244233
▁be 243467
▁) 240889
- 240479
quot 229042
▁was 225293
▁has 219235
▁पनि 216945
▁on 213743
▁not 204557
▁" 203864
▁गर्न 203780
न 189840
स 185856
▁have 178518
बाट 177679
▁by 177650
▁with 174241
a 170351
हरू 168112
▁said 166359
▁are 164080
▁it 163620
▁as 163290
▁from 158923
▁छन् 152329
ल 150153
क 149923
▁हो 148499
▁I 147672
▁गर्ने 145087
i 142531
म 137385
er 137349
▁: 135961
▁will 135024
al 132123
▁at 131227
y 130115
▁he 129968
▁थियो 129193
▁यो 126391
▁म 124628
▁S 124536
▁अ 124033
र 122570
▁तर 122456
▁this 122086
. 121236
▁been 119488
ly 118727
▁भएको 117953
▁लागि 117405
t 116021
es 115040
an 114838
प 114695
▁B 113186
▁M 112273
ना 110973
ता 107845
ट 107466
▁आफ्नो 107211
▁मा 106952
▁also 104748
▁एक 104196
▁Nepal 103974
▁वा 103955
h 101940
▁भने 101928
त 101863
e 100580
▁who 100467
in 100304
▁his 100069
▁or 99646
▁गरेको 99564
ज 98182
▁? 98028
o 97550
▁' 97520
ar 96790
ला 96559
▁an 94441
ers 94216
व 92342
▁क 92281
सँग 92074
it 90795
▁R 90703
or 90431
▁न 90070
m 89833
▁D 89220
ब 88673
▁P 88098
र् 87706
ड 87213
य 86683
en 86200
▁s 85674
▁C 85210
▁थिए 84245
▁A 84029
▁ब 83008
ic 82875
ु 82186
u 81330
at 80992
▁T 80671
▁त 80464
▁In 80374
ने 78798
▁you 78174
▁L 78084
न् 77443
▁t 77372
b 77083
▁आ 77049
ग 76968
▁K 76659
ी 76397
ै 76325
े 76306
▁were 76151
▁वि 75643
l 74409
▁गरिएको 73772
▁b 73709
as 73476
▁G 73010
▁तथा 71922
▁रूपमा 71697
▁N 71687
▁people 71558
▁प 71154
r 71064
ह 70971
g 70949
▁H 70791
on 70670
▁“ 70620
ation 70596
n 69333
▁their 69225
▁but 69216
▁there 69031
▁they 68987
▁F 68916
il 68898
▁को 68824
▁c 68688
▁He 68656
p 68605
ं 68169
▁ग 67937
▁नै 67716
हरूले 67578
▁we 67540
▁after 67285
▁had 67261
▁सु 66557
स् 66015
▁छैन 65938
रा 65760
▁government 65688
▁all 65647
यो 65361
▁can 64813
▁f 64782
▁It 64769
ित 64691
k 64653
▁’ 64409
▁केही 64306
▁/ 64113
▁भन्ने 63867
▁गरे 63817
द 63679
▁which 63535
▁। 63154
री 63056
इ 62799
ad 62632
f 62583
et 62399
▁ 62275
▁p 61861
ate 61569
िक 61458
▁काम 60570
▁के 60336
भ 60267
ँ 60130
ए 59760
▁time 59731
वा 59674
am 59657
re 59587
▁स 59563
▁ह 59321
▁मात्र 59150
एको 59113
▁हुने 58761
▁यस 58625
ि 58129
नु 57385
▁one 57344
हरूको 57323
▁नि 57320
▁st 57240
▁d 57223
▁ज 57103
▁ए 56443
श 56416
▁” 56381
ो 56005
▁भ 55793
▁m 55564
c 55134
▁about 54954
ई 54910
is 54902
हरु 54880
d 54793
नमा 54689
ment 54577
▁कि 54492
् 54432
▁प्र 54148
▁should 53886
el 53745
च 53615
या 53453
ेर 53262
▁कुनै 53071
ौ 52883
▁more 52815
नि 52684
▁ख 52625
w 52613
ख 52545
▁नेपाल 52460
▁धेरै 52441
नी 52260
सम्म 52249
ent 52077
▁other 52031
▁सबै 52015
लि 52009
ant 51985
▁हुन 51784
▁उनले 51523
▁l 51409
ated 50919
नको 50862
▁J 50858
▁h 50843
▁un 50718
ur 50641
ू 50149
▁च 50108
▁उनी 50006
▁गरेका 49961
im 49697
छ 49533
▁कुरा 49452
le 49444
▁only 49438
सा 49419
▁इ 49287
▁श 49104
▁दिन 49082
सी 49007
ल् 48975
एका 48824
um 48808
▁उ 48781
ist 48759
▁r 48538
▁E 48481
▁its 48370
▁no 48249
id 48006
▁But 47959
की 47908
▁नेपाली 47870
▁सि 47410
▁दुई 47375
▁बढी 47329
ति 47246
v 47054
ot 46735
ol 46583
लो 46524
▁out 46439
▁up 46421
ौं 46414
▁का 46322
▁two 46268
▁द 46119
▁g 45815
वि 45560
ak 45479
▁हुन्छ 45128
S 45071
दा 44861
ra 44851
उ 44627
▁बि 44600
ir 44571
ा 44442
▁when 44224
▁हामी 44012
▁1 43998
ch 43927
▁would 43904
▁वर्ष 43619
A 43615
कालागि 43555
▁such 43507
भन्दा 43418
पछि 43288
▁if 43138
▁त्यो 43125
▁भए 43021
▁; 42657
os 42458
▁गर्दै 42446
and 42178
▁country 42147
▁अन्य 42119
पा 42110
▁अनि 42090
st 42024
▁than 41800
फ 41780
▁रहेको 41742
ag 41653
▁१ 41631
▁बा 41630
हरूलाई 41621
C 41580
▁गरी 41346
▁them 41265
ay 41172
▁दि 41095
ङ 40944
▁made 40848
▁व 40771
▁V 40710
th 40661
देखि 40639
▁सा 40455
ली 40358
▁भयो 40339
▁3 40303
ध 40241
द्वारा 40063
▁any 40058
रि 39841
▁years 39828
ure 39810
▁w 39747
्न 39730
▁लि 39582
▁work 39543
ut 39338
▁ल 39237
म् 39009
us 38914
▁नयाँ 38883
▁her 38806
▁भन्नुभयो 38770
▁This 38719
▁W 38662
▁do 38662
ap 38661
▁new 38498
ance 38459
▁year 38438
▁– 38392
▁over 38294
▁5 38245
्य 38219
▁३ 38055
▁कार्य 37812
▁like 37618
▁प्रयोग 37560
ेको 37416
un 37366
▁पा 37179
▁first 37168
▁विकास 37096
om 36953
्या 36853
▁रो 36737
▁We 36623
▁so 36623
सि 36496
क् 36399
▁him 36370
ri 36203
able 35914
ations 35907
ang 35752
▁some 35749
▁एउटा 35742
▁सं 35689
टी 35628
सन 35574
ive 35564
ण 35453
ab 35382
ion 35183
▁५ 35175
est 34844
▁गर्नु 34756
▁Ch 34576
हरूमा 34238
ter 34202
ार 34152
नेछ 34134
▁Nepali 34046
▁my 34030
▁जा 34023
रे 33930
ul 33873
ies 33807
I 33789
▁under 33702
ity 33612
▁U 33322
▁re 33313
▁now 33306
z 33228
▁४ 33106
▁फ 33104
▁she 33036
▁कारण 33021
हा 33002
▁भएका 32990
5 32892
▁O 32846
जा 32838
▁shall 32837
P 32808
िन 32802
▁अहिले 32795
▁बो 32753
▁बताए 32715
2 32411
डा 32343
▁ना 32311
▁could 32270
▁गर्दछ 32136
▁ठूलो 32045
ating 31794
em 31781
टा 31715
ेल 31647
▁सो 31641
▁२ 31563
ig 31527
▁मि 31392
▁प्राप्त 31332
मि 31322
age 31301
कि 31299
▁सेवा 31236
▁Minister 31229
दै 31221
▁मैले 31164
▁प्रति 31149
op 31040
▁me 31028
ary 31025
▁There 30990
मी 30984
0 30797
ia 30717
▁ती 30672
ro 30661
ish 30513
▁समय 30408
▁our 30399
▁घर 30383
▁even 30332
ry 30316
स्ट 30291
▁स् 30285
▁राज्य 30141
▁into 30013
j 29939
ari 29917
▁गर्दा 29878
▁may 29618
▁ch 29571
ors 29543
▁If 29532
1 29458
▁निर्माण 29441
ण्ड 29430
▁मेरो 29414
▁ओ 29408
3 29371
E 29288
▁India 29281
रको 29267
▁what 29258
जी 29150
▁हुन् 29147
ङ्ग 29071
डी 29068
▁your 29052
▁प्रमुख 29045
▁उप 28766
▁‘ 28692
के 28641
एर 28591
कार 28494
▁did 28439
▁त्यस 28408
▁य 28385
० 28361
▁तीन 28287
ाल 28251
▁Sh 28168
▁योजना 28031
▁man 28022
T 28009
ine 27988
ष्ट 27963
▁n 27834
▁make 27705
थ 27692
▁हाम्रो 27682
▁सुरु 27609
ard 27591
▁हुनेछ 27530
▁many 27527
त् 27440
ah 27368
३ 27311
▁ड 27219
▁three 27189
ताको 27187
▁sh 27159
▁against 27139
बा 27131
▁दा 27008
▁पूर्व 27001
▁! 26938
सले 26914
समा 26897
▁आवश्यक 26850
8 26844
M 26796
ान 26791
O 26769
न्द 26767
▁party 26762
ेका 26724
▁यी 26687
▁६ 26645
७ 26633
6 26627
▁सहयोग 26623
▁रि 26611
ीय 26600
लमा 26590
4 26553
पी 26551
▁come 26530
▁सन् 26529
▁झ 26524
रमा 26501
ve 26496
▁उहाँले 26443
ha 26377
उने 26360
न्ड 26356
▁रु 26212
▁महिला 26193
▁St 26146
ती 26128
▁last 26126
se 26089
▁ले 26060
न्छ 26055
▁पहिलो 26050
▁हि 26034
नले 26025
▁अर्को 26019
▁2 25914
कै 25905
▁श्री 25816
▁विश्व 25811
▁स्थानीय 25744
▁public 25636
▁राम्रो 25625
▁जो 25618
▁यसको 25608
सको 25564
▁4 25550
▁मलाई 25548
red 25542
▁same 25498
▁होइन 25496
he 25425
▁उनको 25392
all 25360
▁राष्ट्रिय 25329
▁7 25325
्रो 25314
रो 25283
न्त 25246
aj 25172
av 25148
▁परि 25136
शा 25118
▁गरेर 25076
ain 25068
हरुको 25051
४ 25000
▁नेता 24985
▁ला 24939
ial 24922
D 24909
▁क्षेत्र 24898
▁मु 24898
घ 24885
ath 24880
गा 24879
ight 24864
▁these 24852
▁go 24799
▁सदस्य 24787
▁ध 24773
६ 24749
▁प्रतिशत 24744
लको 24716
▁very 24709
▁ट 24677
उन 24667
▁से 24650
▁गर्यो 24600
१ 24558
्रा 24529
ical 24478
▁They 24425
▁day 24423
x 24421
▁through 24353
२ 24346
ions 24292
▁गो 24290
▁सरकारले 24288
ac 24250
दि 24227
▁v 24204
प् 24196
▁देखि 24189
्ने 24152
▁state 24053
are 24022
▁ex 24012
▁per 23951
▁अध्यक्ष 23803
▁According 23773
▁while 23673
ाइ 23655
7 23599
▁being 23591
▁says 23586
▁development 23568
▁राजनीतिक 23562
▁रा 23539
▁take 23525
▁political 23521
बारे 23510
▁कु 23483
्र 23475
▁सरकार 23466
9 23453
छन् 23444
▁कम 23414
▁Th 23411
स्त 23402
ism 23398
▁those 23370
५ 23324
ip 23262
▁गर्नुहोस् 23242
▁मे 23215
ings 23190
ill 23188
▁देख 23072
जि 22933
८ 22923
ce 22916
त्र 22899
▁जे 22899
▁us 22843
▁घ 22789
▁world 22765
▁देश 22753
ian 22751
▁जन 22748
▁बे 22697
▁percent 22662
▁Y 22636
▁between 22629
▁कार्यक्रम 22481
से 22368
यर 22342
▁समस्या 22320
▁sc 22308
मै 22269
▁before 22201
ही 22194
ous 22189
▁७ 22157
दी 22154
भित्र 22152
▁जिल्ला 22141
▁पु 22091
क्ष 22063
बीच 21970
▁get 21964
▁यसले 21953
▁And 21952
ग् 21932
ally 21894
▁छा 21886
ाउ 21861
ow 21802
ments 21792
▁बन्द 21737
▁प्रहरी 21680
न्ट 21656
▁संस्था 21579
▁सक्छ 21550
led 21531
▁because 21513
ठ 21508
९ 21494
▁विभिन्न 21467
▁गरि 21445
up 21432
▁found 21416
end 21378
▁अधिकार 21343
▁मो 21284
ानी 21283
न्स 21259
▁सुरक्षा 21242
art 21241
▁लेख 21220
▁place 21198
डि 21195
▁अब 21146
रहेका 21131
ank 21116
ans 21102
ारी 21100
▁जसले 21078
▁where 21011
▁Kathmandu 20976
ver 20954
हरूका 20895
▁क्षेत्रमा 20798
▁$ 20764
▁good 20751
▁district 20726
ell 20712
▁due 20699
▁राज 20678
्रे 20664
▁After 20647
यन 20624
▁निर्णय 20590
▁con 20531
अ 20524
▁जि 20444
▁way 20432
ाउन 20423
्रि 20358
ेट 20352
▁आर्थिक 20343
ारा 20318
qu 20311
▁most 20288
ash 20229
टो 20157
L 20150
– 20143
▁अमेरिकी 20134
कको 20132
▁land 20110
▁k 20100
▁अनु 20083
्यो 20080
les 20050
▁चार 20034
▁e 20015
▁say 20010
▁including 20002
ड् 19970
▁हे 19965
▁८ 19913
खा 19912
▁समेत 19868
▁आएको 19854
ore 19843
▁हामीले 19829
▁उच्च 19787
▁j 19785
▁कर्मचारी 19759
▁However 19750
man 19741
▁९ 19697
▁ति 19687
▁back 19643
उनु 19631
▁स्व 19597
न्न 19584
▁व्यवस्था 19557
▁million 19534
बी 19499
ise 19453
▁high 19412
▁हु 19354
▁sp 19353
▁For 19346
▁हा 19346
प्र 19312
▁well 19287
▁local 19252
▁started 19242
▁नाम 19223
कु 19189
▁डा 19146
आ 19124
ast 19106
N 19091
▁police 19078
हरुले 19067
▁am 19018
▁या 19007
ite 18999
▁महा 18992
▁business 18991
ai 18974
▁यस्तो 18939
▁how 18938
▁मानिस 18938
ess 18920
▁8 18886
▁during 18845
ition 18844
▁प्रस्ताव 18834
ok 18814
▁Mr 18795
ढ 18792
▁form 18744
▁system 18737
ting 18728
▁दिने 18721
▁माग 18705
▁गरा 18704
▁As 18691
▁6 18680
▁th 18674
▁name 18664
ars 18658
▁गत 18633
our 18613
▁डलर 18607
▁long 18600
▁व्यक्ति 18594
▁पहिले 18591
▁se 18587
▁women 18575
▁पि 18549
मे 18546
▁used 18540
धि 18537
▁cl 18535
▁market 18494
▁then 18492
▁off 18454
लले 18446
▁An 18440
▁सञ्चालन 18411
▁१० 18406
▁At 18387
ik 18371
▁उत्पादन 18269
र्ड 18214
ence 18182
▁दु 18158
रहेको 18134
▁प्रा 18116
▁संयुक्त 18100
▁समूह 18070
▁गु 18063
▁know 18046
▁You 18022
▁does 18019
ach 18005
▁पार्टी 18004
▁भाग 17988
▁person 17986
▁life 17980
▁खेल 17929
▁उनीहरूले 17926
टि 17923
▁pl 17916
▁res 17909
▁चि 17880
▁नेपालको 17843
ेश 17842
ष 17833
▁meeting 17792
मध्ये 17749
पुर 17740
▁जारी 17723
▁main 17690
▁भा 17688
▁पर्ने 17684
▁area 17678
द्ध 17656
▁called 17649
▁जुन 17648
▁On 17619
▁मूल्य 17608
▁Bh 17593
▁सबैभन्दा 17586
▁अस 17585
▁al 17584
ative 17580
▁किन 17560
▁came 17556
▁program 17529
▁प्रधानमन्त्री 17524
रण 17517
ire 17507
▁जब 17497
▁शक्ति 17490
ty 17482
▁कार्यालय 17481
▁राष्ट्र 17443
ud 17415
▁water 17415
▁राजा 17398
▁just 17396
त्मक 17395
▁cont 17372
ists 17355
ness 17348
▁power 17309
▁house 17308
ya 17306
R 17302
▁प्रत्येक 17281
oc 17276
▁days 17270
▁0 17268
ens 17267
▁उपलब्ध 17263
ong 17235
र्न 17218
ick 17203
als 17200
te 17197
ice 17165
▁help 17158
▁don 17125
▁रुपमा 17123
ide 17121
ord 17111
वी 17103
▁छु 17089
▁पार् 17086
▁ता 17084
ंग 17079
▁children 17055
▁president 17025
▁गर् 17014
▁सक्ने 17014
झ 17011
ail 16972
▁पानी 16972
▁set 16965
od 16960
,000 16951
▁स्वास्थ्य 16931
ust 16922
▁कम्पनी 16919
▁जानकारी 16917
one 16881
▁माओवादी 16859
▁Prime 16841
▁own 16812
▁संविधान 16777
ants 16774
▁hand 16774
पि 16746
▁number 16746
▁dis 16744
ort 16730
▁Rs 16707
B 16698
वादी 16695
▁आज 16677
▁डे 16672
क्स 16667
▁New 16662
▁यसलाई 16651
▁अव 16648
▁national 16647
▁without 16634
▁डि 16634
▁20 16628
▁भारत 16610
▁जीवन 16607
त्त 16585
og 16577
▁पाँच 16577
हरूसँग 16576
भा 16560
▁नेपालमा 16560
▁सक् 16555
▁यहाँ 16525
नुहोस् 16515
▁सम 16510
▁खो 16504
▁यु 16502
▁parties 16492
▁become 16486
▁home 16470
ib 16466
▁here 16445
▁घोषणा 16390
amp 16386
▁महिना 16370
▁काठमाडौं 16369
▁ass 16358
▁त्यहाँ 16352
▁four 16343
▁प्रयास 16339
▁बु 16337
▁त्यसपछि 16307
▁team 16300
▁much 16292
▁गा 16285
▁taken 16277
her 16271
▁यदि 16258
▁within 16255
▁त्यसैले 16245
▁comp 16243
▁गर्नेछ 16207
▁नागरिक 16195
ओ 16186
▁छौं 16179
▁पो 16174
हि 16157
▁विशेष 16150
मान 16116
▁use 16083
रले 16080
▁हाल 16064
ind 16057
्यान 16049
ङ्क 16039
▁end 16035
ful 16027
माथि 16019
▁every 16016
▁see 16012
ge 15998
ुर 15958
ie 15941
बि 15924
iv 15921
00 15888
▁part 15886
▁मुख्य 15867
ates 15843
▁परिवर्तन 15825
▁security 15805
▁खु 15793
▁... 15785
राज 15763
ec 15748
वे 15743
टन 15731
▁different 15720
▁health 15714
▁अनुसन्धान 15683
भि 15680
▁support 15669
▁थप 15653
▁another 15647
▁ने 15637
▁खा 15578
▁given 15560
ष् 15553
▁भन्छन् 15546
▁9 15544
र्थ 15540
▁second 15535
म्ब 15525
▁परिवार 15520
ose 15519
▁ल्या 15517
▁ः 15515
▁क्या 15512
ue 15508
▁लगानी 15504
▁ठ 15493
▁मन 15486
▁She 15467
दैन 15454
▁बजार 15448
तामा 15422
▁situation 15417
▁Congress 15415
ures 15409
▁case 15406
विरुद्ध 15394
aw 15386
▁अधिकारी 15374
▁भेट 15364
पत्र 15363
▁पटक 15359
▁company 15339
▁China 15315
▁चा 15313
lo 15284
▁सम् 15276
▁दिए 15264
▁गरिरहेका 15257
▁बना 15253
▁पे 15251
जना 15231
▁process 15207
उँ 15204
▁अर्थ 15191
ade 15189
▁So 15178
▁भनेर 15163
▁प्रतिवेदन 15160
▁right 15155
ाउने 15136
▁घट 15131
ali 15118
▁सार्वजनिक 15107
वाद 15102
▁उठ 15102
ake 15078
▁% 15056
▁१९ 15030
अघि 15021
▁आफ्ना 15019
▁२० 15018
▁विषय 15011
कमा 15010
▁down 15009
ace 14983
ner 14978
अनुसार 14976
▁शि 14976
▁five 14949
▁six 14941
▁exp 14930
▁हजार 14927
ond 14908
▁कसरी 14899
तिर 14889
▁both 14885
G 14878
▁भारतीय 14870
▁money 14852
हरुलाई 14818
गत 14803
▁constitution 14797
▁fl 14777
▁Dh 14772
त्या 14767
▁need 14735
ब् 14726
ov 14710
▁थिएन 14703
ized 14677
▁जना 14670
▁आयोजना 14660
▁Pr 14659
old 14642
ass 14641
▁सरकारी 14639
प्रति 14609
ual 14581
▁तिनीहरू 14575
▁रहेका 14575
▁विश्वास 14573
ौँ 14572
▁खर्च 14562
▁level 14558
▁तिमी 14556
▁उद्योग 14551
▁शहर 14543
ub 14532
मो 14532
▁countries 14524
▁अमेरिका 14521
र्ट 14516
ew 14514
▁रे 14513
▁Indian 14491
▁बमोजिम 14481
ङ् 14464
▁app 14448
▁उनलाई 14447
▁foreign 14445
▁पछि 14445
तिक 14441
ced 14418
▁सी 14418
▁ra 14407
nt 14400
▁since 14386
▁law 14372
▁थाहा 14355
▁act 14350
र्क 14349
▁10 14337
▁leaders 14330
नामा 14329
▁अन्तर्राष्ट्रिय 14317
सो 14312
▁want 14312
▁शा 14298
▁king 14296
▁देखिन्छ 14286
▁शिक्षा 14268
hi 14259
▁post 14251
▁फि 14235
▁खोज 14209
▁समा 14202
▁विद्यार्थी 14197
▁de 14193
▁Sub 14157
ase 14151
नुपर्छ 14118
ile 14111
▁नीति 14099
▁according 14097
ory 14093
▁President 14093
चा 14085
▁थ 14082
गर 14073
▁ext 14073
hip 14062
▁गि 14055
▁अझै 14036
▁भि 14033
▁रह 14028
its 14020
▁जस्तै 13995
▁office 13981
▁सकिन्छ 13972
▁दुवै 13967
डे 13959
न्छन् 13949
ep 13945
▁prov 13945
हो 13944
▁बुझ 13944
ned 13937
U 13922
▁family 13915
ages 13907
▁going 13902
ale 13901
▁मह 13898
▁still 13854
▁दिएको 13849
▁pre 13837
▁Man 13807
एपछि 13805
▁कानुन 13798
▁Act 13789
▁body 13788
▁service 13784
▁छोरा 13780
▁राष्ट्रपति 13763
▁गाउँ 13746
जु 13738
▁लामो 13733
▁-- 13732
ts 13729
ning 13728
▁week 13723
▁१५ 13719
ters 13714
▁Bahadur 13709
▁committee 13688
▁told 13682
▁अवस्था 13674
▁sub 13672
▁अनुसार 13670
▁अध्ययन 13659
▁When 13655
▁००० 13644
▁Maoists 13643
▁Re 13639
▁घटना 13635
▁उत् 13633
com 13631
द् 13616
▁केन्द्र 13607
ाली 13605
▁various 13589
▁सम्बन्धित 13586
▁ro 13581
▁village 13557
ुक 13556
▁Am 13549
▁war 13529
टर 13527
दो 13521
णा 13486
▁पर् 13459
▁200 13446
▁social 13438
▁अफ 13424
▁सह 13411
▁pay 13402
पमा 13399
▁अलि 13387
▁Raj 13382
az 13375
▁पक्ष 13375
▁समाज 13336
कारी 13331
hes 13320
▁trans 13316
▁पूर्ण 13264
ock 13246
▁युवा 13242
▁old 13240
▁today 13235
ted 13222
▁समिति 13219
▁information 13197
▁२०१ 13195
▁मुद्दा 13191
न्ध 13177
▁बढ 13174
▁बाहिर 13166
▁int 13159
▁अप 13138
▁Ar 13127
▁भ्रमण 13127
pt 13125
▁co 13124
▁सूचना 13121
▁बता 13112
▁left 13110
▁head 13104
त्व 13103
▁o 13097
▁भइरहेको 13095
कर्ता 13086
मको 13084
▁To 13080
▁गरिरहेको 13067
▁प्रभाव 13030
H 13016
▁० 12977
▁around 12962
ited 12959
▁group 12955
▁give 12949
▁ob 12947
▁११ 12947
ृ 12946
तर्फ 12929
नुपर्ने 12929
▁बेला 12929
per 12927
▁विद्यालय 12920
F 12908
▁पूरा 12906
हार 12901
▁स्पष्ट 12901
गि 12900
▁God 12878
▁road 12844
▁Al 12840
ents 12817
ber 12792
एस 12788
▁city 12784
▁interest 12769
▁working 12768
▁went 12767
▁What 12766
▁लु 12763
▁dep 12762
▁Committee 12753
हु 12738
्री 12720
▁बी 12718
▁Police 12711
तिमा 12708
▁करिब 12695
▁सामाजिक 12685
▁सफल 12684
▁That 12657
ati 12655
ling 12651
ress 12645
त्री 12645
▁National 12645
ञ्च 12643
▁सर 12640
▁fact 12635
एन 12634
▁प्रक्रिया 12628
▁१२ 12627
करण 12615
सु 12606
▁प्रणाली 12590
था 12586
▁United 12574
सँगै 12569
▁अभि 12566
ung 12561
सका 12558
▁निकाय 12546
र्य 12538
▁months 12525
ush 12521
▁उत्तर 12517
▁gu 12511
▁ab 12506
ound 12497
▁बनाउन 12484
▁school 12479
▁बाल 12467
▁Kh 12455
▁बिक्री 12442
▁दोस्रो 12431
▁हुनु 12431
▁saying 12426
if 12412
कले 12408
▁ent 12388
▁स्थापना 12349
ल्ड 12341
▁किनभने 12338
▁सोच 12325
र्ग 12324
▁सडक 12316
▁आफ्नै 12311
▁19 12308
▁मानिसहरू 12300
▁स्थान 12295
▁things 12292
मु 12278
▁भन्दा 12269
स्थित 12256
ः 12248
▁गर्नुभयो 12245
▁held 12244
▁आएका 12243
▁तयार 12241
ee 12228
res 12216
▁think 12209
▁पर्छ 12203
▁टे 12202
▁rights 12182
▁done 12181
▁cons 12173
▁Now 12151
▁ago 12129
▁मध्य 12129
▁def 12118
▁व्यवसायी 12116
▁able 12099
▁अनुमति 12092
▁दक्षिण 12079
▁हप्ता 12062
▁लक्ष्य 12041
▁उनका 12031
▁युद्ध 12026
जस्ता 12023
ged 12020
▁विचार 12016
▁general 11989
ob 11987
▁report 11980
▁देखा 11975
▁जु 11974
▁व्यवसाय 11961
▁US 11960
ets 11959
▁past 11950
▁again 11947
▁period 11947
▁Nepalese 11945
▁हात 11943
▁शान्ति 11941
▁problem 11926
हर 11921
▁Ram 11916
▁मन्त्री 11916
▁क्रममा 11908
▁rep 11907
वार 11870
ck 11862
▁अवस्थामा 11861
▁पार 11855
▁cannot 11854
▁game 11850
▁बैंक 11846
▁men 11835
ani 11832
ered 11829
▁Le 11829
▁निर् 11828
▁मृत्यु 11821
▁निका 11809
▁सुधार 11794
ey 11793
▁plan 11792
ins 11782
०० 11777
▁अगाडि 11772
▁inter 11769
▁अन्तिम 11769
ममा 11768
▁प्रश्न 11758
▁दल 11752
▁पद 11732
▁विदेशी 11732
out 11721
ear 11720
▁ad 11719
▁action 11714
▁art 11693
air 11688
▁हुँदा 11688
▁international 11687
ces 11684
▁open 11684
▁car 11670
pur 11664
लु 11651
▁समयमा 11643
▁नियम 11634
▁फेरि 11625
निक 11606
ities 11597
इएको 11591
▁few 11588
act 11582
els 11574
rit 11572
ination 11571
▁बहु 11551
सित 11545
▁win 11513
▁विस्तार 11509
बहादुर 11506
▁निकै 11505
vers 11493
धा 11483
म्प 11483
orn 11475
▁लग 11473
esh 11471
▁conf 11459
जन 11450
▁great 11448
▁समावेश 11440
▁लिन 11431
न्द्र 11426
▁सय 11421
▁स्वा 11416
िका 11415
▁rem 11414
▁पढ 11380
▁Bank 11377
▁leader 11377
▁सक्छन् 11371
पाल 11360
▁Ex 11360
▁लाख 11359
▁स्रोत 11347
ually 11346
▁must 11322
▁Sp 11313
दछ 11311
समेत 11309
▁former 11303
nd 11291
▁तो 11288
ied 11286
▁disc 11286
▁small 11284
▁imp 11283
थे 11280
▁फे 11277
▁सम्झ 11277
▁सिर्जना 11266
ल्यान्ड 11265
▁su 11256
▁rec 11241
ऊ 11239
ack 11234
▁put 11234
▁भाषा 11226
▁making 11225
▁next 11202
▁son 11202
▁मन्त्रालय 11200
▁human 11196
न्य 11179
▁ar 11178
▁current 11176
▁Lord 11169
▁रकम 11165
▁ऋण 11164
▁वस्तु 11155
land 11152
▁आदेश 11152
▁ref 11149
▁छो 11142
जस्तो 11139
▁com 11139
▁भएपछि 11139
▁change 11130
ram 11124
▁issue 11124
▁टोली 11122
▁far 11107
▁छैनन् 11093
▁pro 11090
▁सैनिक 11090
थि 11088
▁important 11082
र्या 11078
▁संरक्षण 11074
रह 11070
▁समाचार 11070
▁त्यस्तो 11068
▁food 11065
▁movement 11065
ising 11061
▁क् 11051
▁Sc 11050
▁seen 11043
▁took 11016
▁visit 11012
क्त 11010
▁stand 10991
year 10990
ou 10981
उँछ 10978
ोक 10972
▁बाटो 10971
गो 10970
▁young 10967
▁एन 10963
uk 10952
▁मानव 10951
ons 10949
▁Z 10945
▁जहाँ 10928
▁capital 10919
▁ब्या 10918
▁peace 10906
▁बताउनुभयो 10896
▁Office 10891
lect 10886
▁list 10880
▁special 10880
▁le 10876
▁वार्ता 10876
▁control 10861
▁policy 10861
ame 10856
▁मिलियन 10854
▁br 10849
ल्या 10848
स्थ 10842
▁उहाँ 10842
▁District 10835
पो 10825
▁चु 10813
’ 10811
ुवा 10810
र्स 10808
▁स्थिति 10802
▁व्यापार 10801
▁भन्दै 10798
▁among 10790
▁min 10789
▁सम्बन्ध 10783
▁व्यवस्थापन 10782
स्था 10779
▁sent 10777
way 10775
▁project 10749
▁छलफल 10748
ved 10738
▁खेलाडी 10736
▁Maoist 10729
▁start 10723
▁२०० 10718
▁economic 10712
▁ऐन 10705
ुट 10703
▁एमाले 10703
▁Mah 10702
ines 10698
ँदा 10694
▁decision 10681
arm 10678
▁dec 10678
▁officials 10677
ect 10676
▁received 10674
▁Con 10673
▁चाह 10673
▁present 10672
▁sm 10666
ैं 10665
▁अघि 10656
▁month 10651
har 10650
ised 10628
लन 10626
▁No 10621
▁All 10610
▁201 10589
▁जंगली 10582
▁em 10573
▁उपचार 10565
दैनन् 10560
▁members 10559
▁भू 10556
▁वर्ग 10545
▁उक्त 10544
▁Ministry 10543
▁नेतृत्व 10534
▁increased 10520
▁class 10505
▁adv 10502
less 10500
▁large 10497
ोज 10489
▁आन्दोलन 10489
▁टो 10482
▁पैसा 10476
▁att 10469
▁यति 10466
▁air 10462
▁bank 10462
▁संघ 10462
▁उनीहरूको 10443
▁भएर 10441
▁Commission 10439
▁order 10434
▁सर् 10427
▁sector 10421
▁qu 10411
▁15 10409
▁society 10408
भर 10407
▁सेना 10402
▁सम्भावना 10389
▁construction 10376
▁कार्यान्वयन 10367
▁del 10363
वटा 10357
ुल 10348
▁lack 10346
दार 10331
बु 10310
ined 10306
▁लगा 10305
▁mother 10300
▁each 10296
▁father 10290
उँदै 10289
ient 10286
▁top 10285
▁पाइ 10277
न्या 10273
नै 10270
ेक 10269
▁member 10267
▁निजी 10261
▁reached 10259
▁सात 10256
पु 10254
▁जनता 10253
▁des 10251
▁आई 10224
▁Is 10209
▁u 10202
ff 10197
ren 10194
▁education 10194
▁न्याय 10191
▁लिएर 10189
▁आक्रमण 10182
▁माथि 10181
▁वृद्धि 10174
णी 10172
▁His 10169
▁खरिद 10164
रू 10161
▁run 10160
li 10155
▁गएको 10154
▁call 10152
▁पुर्या 10152
ाउँ 10151
▁met 10148
▁play 10142
पर् 10138
▁With 10134
▁सहमति 10131
ँदै 10130
▁बारेमा 10128
▁ढ 10122
▁त्यही 10120
▁१८ 10120
▁court 10115
▁आदि 10112
▁बनाउने 10098
▁move 10088
▁सीमा 10066
ater 10064
▁दर्ता 10062
▁सुविधा 10054
▁वातावरण 10048
▁गरिएका 10039
▁basis 10038
▁यात्रा 10034
▁३० 9998
▁विषयमा 9995
▁समाधान 9990
▁inc 9976
▁election 9969
▁Government 9968
▁financial 9941
▁Development 9930
▁उल्लेख 9930
्छ 9924
ct 9902
ru 9901
पूर्ण 9895
ute 9887
▁जाने 9885
▁सामान्य 9884
जे 9874
सं 9871
▁night 9871
▁आइ 9865
लगायत 9862
स्ता 9859
▁कति 9857
▁अपेक्षा 9854
▁अर् 9852
▁संलग्न 9848
▁— 9846
▁amount 9825
▁गरिन्छ 9821
▁Even 9818
▁bl 9818
▁गर्छ 9815
▁राख् 9815
▁अभियान 9811
▁कथा 9811
ency 9806
▁पत्र 9800
र्ने 9796
लाइ 9796
▁areas 9794
▁students 9794
▁सचिव 9793
▁१६ 9791
▁Pro 9788
▁tax 9788
▁हुँदैन 9782
▁तह 9772
▁lot 9758
▁strong 9738
▁तपाईँले 9737
iz 9732
▁chief 9725
ality 9722
ana 9719
▁brought 9719
▁increase 9706
▁show 9703
ll 9696
▁बालबालिका 9693
▁संख्या 9688
्रु 9683
▁गर्नुपर्छ 9669
▁Then 9662
▁big 9662
्यु 9651
▁fin 9651
▁साथ 9651
▁already 9644
घा 9637
▁समुदाय 9636
नका 9629
▁provide 9624
ction 9616
▁राख्न 9615
▁फेला 9610
इट 9607
▁कार्यकर्ता 9601
▁Shrestha 9591
▁Dr 9588
▁though 9585
K 9584
▁चलचित्र 9581
ator 9574
rop 9563
▁कोष 9562
▁वै 9557
W 9550
भरि 9549
ल्ने 9540
▁स्ट 9532
ically 9528
▁राम 9527
▁आशा 9517
▁tre 9515
ven 9514
aking 9509
ric 9508
ich 9506
▁news 9502
ult 9494
ives 9490
▁पाल 9483
▁आयोग 9481
हरुमा 9470
राम 9457
एम 9454
▁साथै 9451
▁view 9449
▁Council 9446
▁प्रविधि 9441
▁possible 9440
रु 9436
▁difficult 9434
▁necessary 9434
आई 9427
urn 9425
▁कर 9425
▁तपाईँ 9412
लिक 9403
▁problems 9403
▁field 9399
मन्त्री 9397
ज्ञ 9394
▁fe 9392
▁चुनाव 9392
▁प्या 9386
▁half 9378
▁अरू 9375
▁दिइ 9374
ics 9365
▁संघीय 9354
pl 9350
▁democracy 9349
▁considered 9333
▁चाल 9333
▁केन्द्रीय 9328
▁शब्द 9327
▁ret 9326
ल्न 9316
▁औषधि 9315
नेछन् 9307
▁fac 9306
▁inv 9298
▁bring 9296
▁लागेको 9295
ified 9278
ier 9254
▁12 9251
▁UML 9242
▁वर्षको 9220
▁साथी 9219
▁नग 9214
▁आधारमा 9203
धी 9199
▁रोग 9189
▁पाठ 9186
ious 9182
▁living 9179
▁Be 9173
▁मुलुक 9171
▁नभएको 9161
▁campaign 9143
▁po 9135
▁World 9131
इन 9128
▁अन्त्य 9128
▁rel 9103
▁तपाईं 9099
▁प्रदान 9094
▁find 9093
▁बाँकी 9092
▁coming 9091
हे 9089
▁statement 9083
फा 9078
ark 9073
▁away 9060
▁विश्वविद्यालय 9058
▁अभाव 9056
▁भूमिका 9056
अन्तर्गत 9055
▁सभा 9054
संग 9050
ving 9046
▁आउने 9031
port 9030
▁film 9028
▁सरकारको 9025
▁rest 9023
लामा 9022
▁त्यसको 9014
▁सम्पत्ति 9014
▁प्रहरीले 9013
▁जित 9010
▁means 8984
▁too 8972
▁लो 8955
hed 8951
▁आरोप 8945
▁pr 8925
▁परेको 8917
▁नियन्त्रण 8915
▁others 8904
▁prom 8904
▁sk 8896
▁tra 8892
लेको 8891
▁Se 8880
▁book 8871
▁बतायो 8871
सर 8865
▁Some 8854
क्ति 8852
▁जान 8850
▁Prasad 8849
बर 8845
ended 8842
▁मद्दत 8827
▁फो 8824
▁गर्छन् 8819
▁Oli 8818
▁कुल 8818
▁Israel 8817
▁workers 8816
▁हालै 8811
▁ag 8809
▁दश 8795
▁fund 8794
▁private 8791
▁तिनीहरूले 8791
▁हुँदै 8789
▁पी 8786
▁बस 8781
▁why 8778
▁नगरपालिका 8777
चि 8776
▁स्वतन्त्र 8776
पे 8773
ger 8766
ize 8750
▁community 8750
▁times 8748
शी 8741
▁reach 8740
▁हामीलाई 8740
▁औं 8737
▁ठूला 8732
▁विरोध 8731
ization 8729
▁free 8729
ची 8714
▁services 8709
▁en 8703
▁organization 8694
▁real 8691
ug 8689
▁media 8687
▁लाग्छ 8686
▁became 8680
▁लोक 8680
जो 8676
▁Similarly 8673
▁२५ 8673
▁pass 8665
▁role 8662
▁यस्ता 8658
▁प्रजातन्त्र 8656
काल 8644
▁third 8644
▁test 8640
सकेको 8632
▁added 8631
ired 8629
▁along 8627
▁ins 8625
▁Cl 8615
▁परिणाम 8608
▁अनुभव 8596
▁गर्दछन् 8590
▁कारोबार 8587
▁cr 8579
ards 8574
ैले 8573
▁ध्यान 8566
कृत 8564
V 8563
ंक 8556
▁पुरुष 8556
▁live 8553
▁y 8546
▁भइ 8543
टे 8537
▁प्रवेश 8534
▁until 8528
▁भविष्य 8524
यत 8523
▁language 8523
ering 8522
पर 8516
▁nation 8516
▁never 8507
▁आमा 8506
▁आयो 8505
▁सम्झौता 8501
▁Thapa 8496
▁जग्गा 8496
▁म्या 8495
▁आफू 8491
▁१४ 8485
▁che 8476
ected 8475
▁करोड 8474
erv 8472
▁always 8471
▁डो 8471
्वा 8470
▁भएकाले 8464
▁death 8460
▁नदी 8460
▁समाप्त 8457
त्ता 8453
▁seems 8452
▁दाबी 8446
ues 8439
ाउनु 8437
▁forward 8437
▁व्यापक 8434
स्क 8430
sh 8429
दिन 8427
▁cut 8426
▁environment 8424
▁परियोजना 8423
▁आवश्यकता 8419
▁गीत 8416
▁less 8405
ट् 8403
▁तेस्रो 8402
▁little 8393
ible 8384
दाता 8382
▁सकि 8376
▁clear 8369
सहित 8363
▁taking 8361
▁gr 8357
▁side 8357
ax 8353
▁गरिने 8345
▁विवरण 8341
▁major 8337
▁Association 8335
lic 8321
own 8312
ert 8309
▁sa 8302
▁यसै 8296
▁killed 8295
▁सम्पूर्ण 8288
▁अन 8285
ense 8283
▁एवं 8279
▁Ag 8278
▁गरेपछि 8276
▁सूची 8271
ix 8269
▁11 8268
नो 8257
▁प्रदर्शन 8245
▁पत्रकार 8243
▁One 8240
▁भे 8231
ोर 8227
▁पर्नेछ 8223
▁विभाग 8218
▁उसले 8214
व्य 8206
▁best 8197
▁fall 8196
▁उद्देश्य 8194
र्म 8182
▁सहभागी 8180
▁दियो 8173
▁एस 8169
तिको 8163
▁People 8159
▁billion 8154
▁देशको 8152
▁read 8146
▁Ph 8143
▁निम्ति 8142
र्ष 8141
▁Bar 8141
भाव 8140
▁अदालत 8140
▁जोड 8136
▁१३ 8130
▁जिल्लामा 8129
ith 8126
▁पार्न 8126
▁kind 8123
▁विदेश 8121
▁परीक्षण 8100
, 8097
▁sl 8091
▁कहिल्यै 8088
action 8084
▁Department 8084
▁pursuant 8081
▁वित्तीय 8078
्नु 8067
▁keep 8067
▁yet 8049
▁इन् 8049
▁South 8040
▁कृषि 8039
▁later 8037
▁point 8037
▁short 8033
▁ind 8032
▁वे 8032
▁30 8026
बल 8025
▁आफ 8025
▁दर 8025
ats 8018
▁won 8018
▁निश्चित 8016
▁return 8014
▁असफल 8007
ign 8006
▁गोली 8001
▁अन्तर 8000
▁Therefore 7999
▁Although 7996
umb 7995
endra 7993
▁Chief 7988
▁study 7986
▁मात्रै 7979
▁How 7976
▁प्रतिनिधि 7976
▁भूमि 7976
ph 7974
लै 7971
▁तयारी 7970
पति 7968
▁De 7968
ोट 7963
▁Iraq 7959
▁अझ 7959
▁खे 7954
नाले 7952
▁यद्यपि 7947
vi 7944
▁खुला 7943
डो 7934
▁पुनः 7930
ime 7926
▁near 7916
▁ब्रा 7912
▁General 7911
▁record 7906
ained 7902
क्रम 7902
▁agreement 7901
ood 7900
▁heart 7899
▁पर्दछ 7882
▁कायम 7880
न्ज 7878
▁गरिनेछ 7875
िएको 7869
ree 7866
▁minister 7865
क्षण 7864
▁investment 7860
▁following 7854
▁चीन 7850
▁question 7848
▁बोर्ड 7840
▁दिएका 7839
▁attack 7833
▁यसरी 7833
ices 7830
▁future 7828
▁गठन 7820
▁pain 7817
ward 7816
▁fire 7815
▁May 7813
▁घण्टा 7813
▁Te 7812
▁love 7803
ालय 7792
▁कसैले 7789
ls 7769
▁States 7768
▁concerned 7762
ij 7759
hen 7757
▁civil 7753
▁army 7751
▁विवाद 7748
▁ट्र 7734
▁Col 7730
anch 7728
▁issues 7728
row 7727
▁गर्नुपर्ने 7725
▁गाडी 7718
▁सेट 7718
ots 7716
▁look 7715
ँग 7708
नुहुन्छ 7707
सम्बन्धी 7704
नुभएको 7701
▁पीडित 7701
▁सानो 7696
ट्ट 7694
▁asked 7694
पनि 7691
▁स्टे 7689
▁सम्भव 7685
▁central 7683
न्ने 7680
यक 7680
ane 7677
बार 7673
▁2007 7671
pp 7670
▁demand 7668
arn 7664
line 7662
सक 7662
तम 7659
▁१७ 7659
काअनुसार 7658
▁परमप्रभु 7657
▁पेश 7655
▁meet 7654
▁press 7651
▁trying 7650
बाहेक 7649
▁बजारमा 7643
ल्ला 7641
▁सम्पन्न 7639
▁यही 7637
rat 7635
▁बस्ने 7633
▁बस् 7628
ost 7623
▁etc 7618
▁डी 7618
▁Co 7606
▁भुक्तानी 7606
▁घु 7601
▁बाँ 7597
▁Friday 7595
ुन 7589
▁increasing 7586
▁जनाएको 7586
एल 7585
▁पछाडि 7583
▁कालो 7579
ave 7568
ण् 7558
▁संशोधन 7558
▁cur 7542
▁२००७ 7530
▁बजेट 7528
▁नजिक 7526
son 7525
▁16 7523
▁My 7521
▁कारबाही 7521
▁Monday 7515
दर 7510
▁क्र 7510
प्रसाद 7509
▁जस्तो 7507
▁आगामी 7501
याँ 7500
दर्श 7495
▁भन् 7487
▁लागू 7487
▁Not 7485
▁child 7482
▁वास्तविक 7478
पको 7477
▁incident 7471
▁Ab 7470
▁गम्भीर 7469
क्षा 7460
▁कार्यक्रममा 7460
▁निर्देशक 7460
ished 7458
▁आफूलाई 7458
▁died 7456
▁पठ 7449
▁serv 7448
▁seven 7447
ताका 7446
हित 7445
ek 7443
war 7440
hu 7430
▁मार्ग 7430
▁कै 7426
▁production 7425
▁जी 7425
सिया 7423
▁soon 7423
▁competition 7422
▁dist 7422
▁वन 7418
▁places 7417
▁100 7414
त्न 7413
▁ई 7408
▁least 7406
▁साहित्य 7401
▁expl 7398
▁job 7396
▁price 7396
▁season 7395
ific 7394
लेर 7393
▁देशमा 7390
बद्ध 7389
▁total 7388
▁non 7386
▁कल 7378
▁पुन 7370
▁मूल 7370
ays 7368
▁whether 7366
▁प्रशासन 7366
▁भनेको 7366
▁प्रकाश 7364
▁industry 7359
▁भो 7354
▁col 7349
तमा 7345
▁तल 7345
ending 7343
▁दिनु 7342
ower 7341
▁अस्वीकार 7341
▁वितरण 7340
▁छोड 7334
फि 7330
▁दू 7326
atives 7325
▁goods 7325
उँछन् 7317
▁मत 7316
▁walk 7314
▁बन्न 7310
▁face 7308
▁चयन 7307
▁होला 7304
▁Wednesday 7299
▁military 7295
▁खण्ड 7293
▁वर्तमान 7293
▁leadership 7291
▁music 7290
▁सोमबार 7284
▁Singh 7282
तो 7278
▁reason 7276
▁शुक्रबार 7275
▁account 7273
ony 7271
aged 7268
▁Su 7268
▁mind 7268
▁Em 7265
▁पाउ 7256
▁Sunday 7254
▁बनेको 7253
ability 7250
▁फिल्म 7249
▁understand 7248
▁known 7246
▁१९९ 7245
▁बर् 7244
▁फर्कि 7240
टमा 7239
हन 7238
नाथ 7232
▁जनताको 7232
▁once 7226
▁पास 7225
▁Mad 7224
▁ठाउँ 7224
▁While 7222
▁पुस्तक 7222
▁आठ 7212
▁involved 7209
▁तापनि 7209
▁यातायात 7203
▁सिंह 7203
▁let 7201
▁पाउने 7199
तको 7195
ँच 7193
▁bus 7193
▁got 7193
वर 7191
▁शुरु 7190
वान 7186
बे 7185
▁Thursday 7181
▁hundred 7180
▁५० 7171
▁story 7168
▁लिने 7168
योजन 7151
▁कार 7151
▁पहिचान 7150
▁politics 7149
use 7148
वासी 7147
▁sign 7145
▁line 7140
▁बुधबार 7140
▁Tuesday 7137
▁allow 7135
थ्यो 7132
▁अधि 7119
▁लाग 7114
uck 7110
▁संकट 7106
▁sur 7104
उँदा 7096
▁Secretary 7096
▁फरक 7096
▁स्त 7093
▁18 7089
▁ठाउँमा 7083
तः 7080
▁budget 7080
▁अधिकृत 7080
ances 7079
▁serious 7077
▁Kumar 7076
▁यस्तै 7074
▁हत्या 7073
▁val 7072
ones 7070
▁seem 7061
▁साम 7061
▁आधार 7055
गी 7053
योग 7050
▁व्य 7049
इरहेका 7048
▁हरा 7047
▁अनुमान 7044
▁कार् 7044
▁परिषद् 7043
▁सेयर 7042
गम 7028
▁पश्चिम 7028
und 7027
▁woman 7024
▁written 7023
oth 7021
▁history 7018
adi 7017
▁सुरक्षित 7017
osed 7016
▁reg 7016
▁companies 7015
▁नेपालका 7014
श् 7010
▁सामग्री 7008
▁develop 7006
्ट 6999
▁wor 6977
▁कृ 6974
▁hard 6971
aul 6969
▁arrested 6960
▁treatment 6951
ara 6945
iss 6945
▁lead 6941
▁बच 6938
-1 6936
used 6932
्व 6932
▁विवाह 6931
लर 6930
▁थिएँ 6927
▁विगत 6927
▁भित्र 6924
▁कुरामा 6922
▁Party 6921
ides 6917
यल 6917
▁Res 6917
शील 6916
▁क्षति 6916
▁फाइल 6916
amb 6909
▁provided 6906
▁गते 6906
▁light 6905
pa 6902
▁सञ्चार 6900
▁पर्यटक 6898
ration 6891
▁cent 6880
▁गुमा 6876
मले 6872
▁ठा 6872
नाको 6867
▁जति 6867
▁टिप्पणी 6864
▁activities 6862
▁राजधानी 6862
ेला 6861
ley 6860
वन 6860
▁contract 6857
▁cor 6856
▁care 6854
▁अवसर 6854
आर 6850
▁stay 6846
▁Court 6843
क्षक 6840
▁श्रेष्ठ 6840
▁himself 6838
▁संसद 6837
▁आइतबार 6831
na 6829
▁भी 6827
ution 6826
▁अस्पताल 6826
ताले 6825
▁comes 6825
▁एजे 6825
▁together 6824
▁Un 6822
▁full 6820
▁फै 6812
▁संसार 6809
▁Chinese 6805
uted 6803
▁नेपालले 6799
▁center 6797
▁अहिलेसम्म 6797
▁बिरामी 6795
ञ्ज 6787
▁ac 6785
▁Reg 6784
▁आग्रह 6779
▁बल 6778
केको 6776
▁produ 6776
▁American 6775
▁रहे 6773
▁यसमा 6772
▁using 6768
ured 6767
ेन 6766
▁lost 6766
▁final 6763
▁raised 6762
▁eat 6757
▁Yahweh 6755
मत 6749
निर् 6748
▁recent 6747
▁result 6745
▁क्लब 6744
▁Mar 6743
▁building 6743
▁Sharma 6740
app 6739
▁बैठक 6735
गु 6730
eal 6728
▁risk 6728
ott 6726
▁फर्क 6726
ills 6725
▁त्यति 6724
ys 6723
▁training 6722
यम 6718
▁अग्र 6718
▁खाली 6716
▁Yadav 6709
oy 6707
▁adding 6707
लाको 6703
▁गए 6703
int 6701
▁लाग् 6701
ases 6698
▁तब 6694
▁प्रतिस्पर्धा 6694
▁उमेर 6693
▁त्यस्तै 6692
्रम 6691
ोग 6689
▁These 6689
▁रू 6689
ional 6688
▁भु 6686
मिक 6678
▁आत्म 6677
▁stop 6673
▁दुःख 6673
कर्मी 6671
▁age 6670
▁ची 6666
▁प्रस्तुत 6664
▁गराउन 6661
सकेका 6660
▁यादव 6660
▁थाल 6659
▁एका 6658
▁management 6657
▁पुगेको 6657
बेला 6656
▁sol 6656
च्छ 6647
▁build 6647
oint 6646
▁सौ 6646
▁प्रतिक्रिया 6642
▁हेर् 6642
▁सम्बन्धमा 6639
▁धर्म 6638
anc 6635
▁गृह 6634
▁hospital 6633
ection 6631
▁सन्देश 6631
▁निर्वाचन 6627
▁प्रजातान्त्रिक 6627
▁यसका 6627
▁established 6625
▁पर 6624
▁matter 6618
▁आफैं 6615
▁decided 6614
▁Ind 6610
ron 6609
▁199 6608
▁चाहि 6608
▁जाँच 6606
ina 6601
▁घरमा 6598
▁Since 6596
▁morning 6595
फो 6592
बो 6583
▁पुरानो 6583
▁rate 6582
▁पछिल्लो 6580
▁trade 6568
ature 6564
चित 6563
aster 6562
▁बीच 6562
▁Madhes 6561
▁ed 6561
▁low 6560
▁उनीहरू 6560
▁बिहीबार 6560
ject 6551
ote 6551
दे 6551
▁available 6550
▁director 6550
▁share 6550
▁चौ 6550
▁Saturday 6548
रहे 6547
दाय 6546
▁एम 6541
▁जोखिम 6538
▁बाध्य 6537
▁citizens 6535
रीको 6534
itation 6533
▁leave 6532
▁टा 6530
▁परा 6529
igh 6526
▁घा 6526
▁forest 6524
माले 6520
ury 6514
▁कार्यकारी 6514
गे 6509
▁दो 6509
▁अरु 6508
▁पुरस्कार 6500
कामा 6498
▁पर्याप्त 6498
्याल 6496
▁King 6496
▁आँखा 6493
▁te 6492
▁dev 6490
▁deal 6489
▁official 6489
ीकरण 6487
▁immediately 6487
ंश 6485
▁accept 6482
▁close 6479
▁supp 6479
▁निरन्तर 6476
▁हुनुहुन्छ 6461
▁tell 6457
▁व्यक्त 6457
▁हेर्न 6455
▁consum 6454
▁organized 6453
फी 6452
▁जन्म 6452
▁fight 6451
▁self 6447
▁सुन 6447
ased 6444
▁York 6443
▁X 6440
▁everyone 6438
▁Japan 6436
▁कांग्रे 6434
▁थाले 6434
▁शाही 6433
▁thing 6431
▁तिनीहरूलाई 6423
ret 6422
▁अल 6418
▁direct 6417
▁Me 6409
▁उनीहरूलाई 6409
▁gl 6407
▁region 6405
▁उसको 6405
▁सू 6405
प्त 6404
▁technology 6403
▁परे 6403
cle 6401
▁ऊ 6400
छु 6399
▁न्युयोर्क 6395
▁गैर 6394
सम 6393
क्ने 6388
▁remain 6381
लग 6380
पानी 6376
▁enc 6376
मुख 6373
▁sw 6370
▁gave 6367
▁पहि 6365
▁बलियो 6365
▁Par 6364
▁मनो 6361
urs 6356
▁ज्या 6354
▁राख्ने 6353
▁श्रम 6353
leg 6350
▁might 6350
▁भाइ 6349
▁प्रायः 6342
▁vot 6339
▁हाम्रा 6337
▁अपराध 6334
जले 6333
▁रेकर्ड 6331
▁सर्व 6331
न्थ्यो 6329
▁२१ 6323
जस्तै 6321
▁based 6320
ञ् 6314
▁programs 6311
▁डु 6310
▁पशु 6309
ange 6307
▁कला 6304
cy 6302
लब 6300
▁बन् 6297
▁activ 6294
▁प्रेम 6290
aker 6289
रेको 6284
▁design 6280
▁आए 6279
▁वर्षीय 6277
▁सक्षम 6275
पन 6273
▁चला 6273
▁बोला 6271
min 6268
▁राजनीति 6268
▁something 6264
▁talks 6264
▁mon 6259
▁employees 6256
▁Air 6252
pect 6248
▁cost 6248
▁भएमा 6247
▁शु 6246
▁व्यवहार 6241
्दा 6238
tle 6237
▁federal 6236
▁room 6235
▁एक् 6233
▁www 6228
ular 6227
▁object 6225
लित 6224
▁स्थानमा 6224
▁hit 6223
to 6221
देश 6218
▁लागत 6216
ink 6212
र्ज 6212
▁House 6211
▁गर 6211
▁er 6209
▁expected 6209
▁Q 6208
▁travel 6207
▁आर 6204
▁थापा 6204
तालाई 6202
▁आउ 6195
ुर्ुर्ुर्ुर् 6194
▁suggest 6194
▁आधारित 6192
▁स्थापित 6191
cing 6187
न्च 6187
▁International 6187
▁feel 6182
▁खाने 6179
▁फिर्ता 6179
▁फा 6178
▁leg 6176
▁outside 6173
▁शनिबार 6173
चार 6172
▁आधा 6171
▁मोड 6171
▁pressure 6170
▁सम्बन्धी 6167
ption 6166
▁ask 6165
▁मिनेट 6164
▁wh 6163
han 6162
▁नभए 6162
ल्प 6157
▁प्रवक्ता 6153
med 6152
▁announced 6152
▁border 6151
▁तेल 6149
▁believe 6147
▁across 6146
ict 6145
▁University 6141
▁Tr 6139
▁पुग् 6135
▁ठीक 6134
gh 6133
▁प्रो 6127
▁hold 6125
▁गराउने 6123
▁oper 6119
▁हुन्छन् 6118
acy 6112
▁Do 6112
▁responsibility 6111
▁z 6111
▁सवारी 6110
▁commun 6109
▁कलेज 6104
▁सक्दैन 6104
rol 6102
नेर 6101
▁बै 6100
Y 6099
▁तिनी 6099
▁म्याक 6095
▁प्रकाशित 6090
▁माइक 6089
▁दिन्छ 6082
▁आकर्ष 6078
▁Ne 6075
▁उपभोक्ता 6075
चक 6073
जको 6073
▁कम्तीमा 6063
▁From 6060
▁Koirala 6060
▁चुनौती 6054
▁began 6053
▁Sun 6052
▁ear 6052
▁didn 6050
▁परमेश्वर 6046
▁camp 6045
▁तिन 6040
au 6039
ft 6038
▁bur 6037
▁led 6035
▁players 6034
▁मिडिया 6034
▁दबाब 6033
▁परीक्षा 6032
▁better 6031
▁spec 6031
oh 6030
ढा 6029
▁terror 6027
▁aff 6026
रत 6025
▁14 6023
▁त्यसै 6023
▁बचत 6022
▁बार 6021
▁acc 6019
▁भन्न 6019
ification 6018
भी 6018
▁comm 6018
▁छिटो 6018
▁Go 6015
▁anything 6015
sc 6012
▁favor 6012
▁formed 6012
▁25 6009
▁साल 6009
ided 6008
▁doing 6005
▁further 6004
▁seek 6004
▁प्रमाण 6002
▁तपाईँको 6001
form 5996
▁related 5995
▁friends 5994
▁मान्छे 5994
att 5993
▁equ 5992
▁protect 5992
▁सकेन 5991
▁सके 5990
▁कठिन 5987
▁themselves 5980
▁सम्मान 5978
ored 5977
▁Gh 5976
▁http 5975
▁बिहान 5971
▁opp 5969
▁कम्पनीले 5965
▁विकल्प 5963
con 5961
rem 5959
ध्य 5956
दान 5953
▁needs 5942
▁था 5942
▁मना 5941
ज्ञा 5939
▁हरेक 5939
▁अधिकारीहरूले 5938
▁str 5937
fe 5936
▁dead 5931
ince 5930
सीले 5929
low 5926
रोध 5926
io 5921
▁ठे 5919
▁plans 5918
▁13 5917
▁आन्तरिक 5913
▁position 5908
ala 5899
▁sing 5895
▁सत्य 5891
तार 5887
▁भनी 5887
रिया 5884
▁पर्यो 5883
▁मानिसहरूले 5876
▁किसान 5874
▁यौन 5871
▁Assembly 5869
▁projects 5868
▁Shah 5867
खि 5862
▁हिंसा 5862
ler 5861
▁respect 5861
▁wife 5860
▁क्षेत्रको 5859
▁ten 5858
▁दे 5853
▁ph 5847
▁organizations 5839
▁black 5838
▁impact 5838
▁वर्षमा 5835
नुभयो 5831
ication 5829
▁Ad 5824
▁मिति 5821
▁goal 5819
▁मौ 5819
▁थि 5817
लका 5815
ुरो 5815
▁reb 5815
परि 5813
सार 5810
▁contrib 5810
▁धा 5809
▁रूप 5804
▁div 5801
▁पर्यटन 5796
ately 5795
▁प्रदेश 5794
ndra 5790
िनो 5790
▁पाए 5790
ili 5784
▁ground 5783
याली 5782
▁reported 5782
▁works 5781
शि 5780
▁Board 5779
▁छोरी 5779
▁prep 5777
लिया 5774
▁आप 5774
▁bar 5772
▁eight 5770
▁inst 5769
▁event 5765
▁अन्त 5762
▁चिनियाँ 5761
▁मारि 5757
▁वर्षअघि 5756
▁officer 5754
▁गलत 5754
▁नदि 5753
▁देखिएको 5751
▁ter 5748
▁अधिकांश 5746
▁transport 5745
▁front 5744
▁आलोचना 5744
agar 5743
cl 5743
▁represent 5739
ook 5738
▁kept 5738
▁वास्तवमा 5737
लिङ 5736
▁एन्ड 5735
▁Don 5734
▁dri 5733
▁talk 5730
ators 5729
▁lo 5727
we 5724
▁previous 5723
▁पार्ने 5723
▁VDC 5721
क्ट 5720
▁tw 5719
▁certain 5718
▁असर 5717
▁Due 5716
▁crisis 5714
ump 5705
▁अति 5705
▁तत्काल 5704
▁17 5703
▁एकै 5703
▁सामना 5703
ज् 5702
▁completed 5701
▁gre 5696
▁जिम्मेवारी 5696
फाइ 5693
ton 5691
▁ओली 5689
▁प्ले 5687
▁सोध 5686
▁thought 5685
▁पुग्यो 5684
▁ब्य 5680
ँड 5678
ल्ट 5675
विक 5675
▁early 5675
▁मान 5675
▁परामर्श 5673
▁येशू 5669
ग्र 5667
▁bel 5667
▁resources 5667
▁address 5664
धार 5663
▁During 5661
ूल 5660
▁Madhesi 5660
ove 5658
▁निर्देशन 5657
▁authority 5650
▁न्यून 5649
▁cre 5648
ma 5644
▁पुर् 5642
▁opened 5639
▁देव 5637
रीमा 5636
▁समितिले 5633
क्षित 5631
एफ 5629
▁mat 5629
▁expressed 5627
▁उभि 5626
▁२४ 5626
urb 5625
▁itself 5623
ON 5622
▁ढि 5621
▁बढेको 5621
▁प्राधिकरण 5619
▁भवन 5618
▁फुटबल 5616
▁elections 5615
▁income 5611
▁Chairman 5607
▁उल् 5605
▁fear 5602
▁क्षमता 5600
▁एउटै 5598
▁Sy 5595
▁population 5595
▁पक्षमा 5592
▁force 5591
▁संरचना 5590
▁सम्म 5590
▁miss 5589
▁संकलन 5588
▁really 5586
of 5585
▁अर्थतन्त्र 5584
▁thousand 5581
▁तिम्रो 5579
▁districts 5578
ल्य 5577
▁invest 5574
cept 5563
struction 5561
▁तारा 5561
▁played 5560
▁By 5559
▁उपाध्यक्ष 5559
▁issued 5555
▁निर्धारण 5554
▁भनाइ 5554
▁Parliament 5550
पक 5549
▁लिग 5549
▁प्रभावित 5548
▁अन्तर् 5546
▁बाबु 5542
▁San 5540
ata 5539
ँदैन 5539
▁महसुस 5538
▁located 5537
▁पुरा 5537
▁flow 5536
▁published 5535
▁बजे 5535
▁भारतको 5535
▁daughter 5532
▁शासन 5527
▁नौ 5526
ying 5525
▁परेका 5523
▁समितिको 5521
igation 5519
ंदै 5519
ily 5516
▁व्यक्तिले 5515
▁economy 5514
▁neighb 5512
▁ऐ 5508
▁गति 5508
▁सक्नेछ 5507
▁भई 5506
▁उठा 5505
▁उपदफा 5503
▁facilities 5502
▁secretary 5499
▁streng 5498
ुरु 5497
▁file 5497
▁particip 5497
▁follow 5496
▁target 5495
▁continue 5493
ather 5489
▁administration 5489
▁दैनिक 5487
▁व्यक्तिगत 5486
▁मेरा 5485
ium 5484
ify 5482
ठा 5480
▁vis 5477
▁oil 5476
▁न्य 5475
▁व्या 5474
▁साह 5474
▁आम्दानी 5470
hel 5468
▁natural 5468
▁looking 5463
hy 5461
▁चैत 5460
▁bad 5458
▁फोटो 5457
▁relations 5454
▁प्राविधिक 5452
▁cap 5451
▁झा 5450
▁blood 5449
▁prot 5449
▁भनि 5447
▁inside 5445
” 5443
▁प्रे 5443
▁सँग 5443
ैन 5442
▁ready 5438
इँ 5437
▁विश्वव्यापी 5435
▁टि 5434
▁gold 5432
पहिलो 5430
osp 5429
म्बा 5429
ष्ठ 5428
▁सुझाव 5428
▁AP 5426
▁products 5425
▁योगदान 5425
ision 5423
वल 5422
▁रात 5422
▁नपा 5420
aring 5419
▁disease 5418
▁सक्रिय 5418
ison 5414
ोरी 5414
▁फाइदा 5412
▁ऊर्जा 5408
▁बताएका 5408
▁Many 5404
▁बताउँछन् 5403
▁med 5401
idence 5396
▁नगर्ने 5393
▁कांग्रेस 5392
▁थिइन् 5392
ँडा 5391
▁Pra 5390
▁केन्द्रित 5389
▁date 5387
▁जसरी 5387
▁भावना 5385
▁Can 5383
▁दृश्य 5382
▁defe 5380
▁born 5379
oon 5378
▁susp 5376
▁trad 5376
▁उदाहरण 5376
▁नहुने 5375
▁त्रैमासिक 5374
मूल 5373
▁Br 5372
▁शुल्क 5372
लिन 5370
tain 5367
▁टाढा 5367
▁पोष्ट 5367
▁ग्राहक 5366
▁attention 5365
ारो 5363
रेर 5362
साथ 5362
ita 5359
द्व 5357
ressed 5356
▁पुनर्स्थापना 5355
ody 5351
▁abroad 5351
▁अङ्क 5350
ories 5348
मका 5348
▁न्यु 5347
▁September 5344
▁points 5344
▁सम्बोधन 5334
ises 5329
▁Foreign 5326
▁football 5326
ared 5325
पटक 5324
ex 5321
atic 5318
▁returned 5317
लागि 5316
▁सही 5316
eng 5315
▁im 5314
▁बिन्दु 5308
▁addition 5305
▁John 5304
▁schools 5300
▁mar 5293
तु 5291
▁practice 5291
be 5290
oot 5286
▁Ma 5286
ought 5284
▁फ्रे 5281
▁legal 5279
▁घाइते 5279
ount 5277
▁efforts 5275
uring 5273
▁सकिने 5268
ape 5265
uw 5264
▁conference 5264
▁poor 5259
▁quarter 5259
▁culture 5258
▁पृष्ठ 5258
go 5257
▁staff 5257
रेका 5254
inc 5253
मन 5253
▁heard 5253
▁ide 5253
▁राखि 5253
जर 5251
▁कोही 5251
ठी 5249
▁improve 5248
▁mod 5248
▁साना 5245
लिएको 5244
▁lives 5244
▁हुँ 5243
iver 5242
▁above 5242
▁proper 5242
ढी 5240
▁समर्थन 5239
▁प्रत्यक्ष 5238
▁rather 5237
▁सोही 5237
▁जस्ता 5236
▁वरिष्ठ 5236
न्थ 5235
▁हिजो 5235
त्य 5234
▁गरियो 5232
▁जसको 5231
▁saw 5230
रुप 5229
▁sum 5227
▁अर्का 5226
▁drug 5223
▁वेब 5223
▁वक्तव्य 5218
▁comple 5212
▁तर्क 5210
▁fail 5207
▁अवस्थित 5205
ural 5204
मेन्ट 5202
lection 5199
overed 5198
aid 5197
rib 5197
▁access 5196
पूर् 5192
▁ग्रा 5192
▁चे 5189
ike 5188
▁opportunity 5188
▁site 5188
ham 5187
▁मानि 5186
▁बाट 5185
▁Pakistan 5182
den 5181
▁stopped 5181
▁नाममा 5179
▁Jud 5178
▁उपयोग 5178
▁eyes 5174
▁२२ 5171
▁साइट 5170
▁inf 5169
ively 5168
▁ri 5167
▁आगो 5165
ble 5164
▁ce 5162
कुमार 5158
▁क्रि 5156
▁स्क 5156
ests 5151
▁स्वीकार 5149
▁Bl 5147
bs 5146
डमा 5146
▁पारि 5142
▁मानिसहरूलाई 5138
▁growth 5137
▁fun 5133
▁अल् 5132
▁having 5131
▁hours 5130
▁senior 5130
ेपछि 5129
▁quality 5128
▁क्रिकेट 5128
न्दा 5124
▁ब्रि 5122
▁British 5121
।” 5120
▁भै 5119
▁४० 5118
▁कतिपय 5117
ology 5116
▁complain 5115
▁तालिम 5111
▁Sam 5110
यी 5109
▁की 5109
▁परमप्रभुले 5109
▁writ 5108
▁loss 5106
▁छिमेकी 5105
▁दफा 5105
▁nothing 5104
्दै 5103
▁कर् 5101
▁शिक्षक 5101
▁hands 5099
bers 5098
▁David 5098
▁बाँच 5098
▁कलाकार 5096
▁त्यसलाई 5096
▁fr 5095
▁वरिपरि 5093
by 5092
इक 5091
▁कमा 5091
▁imm 5088
▁चरण 5087
het 5086
स्को 5086
▁थोरै 5086
▁Cup 5085
▁Im 5085
▁मान्यता 5085
ारमा 5083
▁पक्राउ 5081
▁ते 5080
▁Dev 5079
▁हेरचाह 5079
ama 5078
त्रा 5077
ateg 5076
▁ur 5076
▁टु 5076
काले 5075
▁collect 5075
वास 5074
▁चित्र 5074
▁संस्कृति 5074
▁giving 5073
▁tr 5072
▁En 5070
▁खुशी 5068
न्थे 5066
छा 5064
▁निष् 5061
▁पठा 5060
▁एफ 5059
▁bill 5057
▁conduct 5057
oss 5054
▁command 5053
▁course 5053
▁speak 5053
▁शर्मा 5051
ामा 5050
▁Gu 5050
orm 5049
▁ग्रामीण 5049
▁खराब 5048
▁husband 5044
▁तिमीहरू 5042
▁tem 5040
▁आउन 5039
▁विशेषज्ञ 5039
▁उत्पाद 5036
▁effect 5033
▁प्रशा 5033
▁टाइ 5032
ender 5031
▁राजस्व 5030
इन् 5028
▁ord 5028
▁friend 5026
▁अवधि 5026
▁उडान 5024
▁खोजी 5022
▁sal 5021
▁enough 5020
▁कोइराला 5019
नुहु 5017
men 5013
▁jo 5013
▁movie 5011
ारि 5007
▁दुर् 5006
पत 5005
▁Lal 5005
▁experience 5005
▁भएन 5005
ites 5002
मक 5002
▁Mc 5000
▁ident 5000
▁भनिन् 4997
su 4993
▁अवधिमा 4988
▁Pol 4987
▁research 4987
▁पार्टीका 4987
▁bre 4985
▁भिडियो 4985
जनक 4984
▁elect 4981
istic 4978
▁govern 4977
▁proposal 4977
किङ 4975
▁built 4973
▁बैं 4971
▁प्रधान 4969
rain 4968
▁कुन 4965
iness 4964
▁add 4964
▁रोजगारी 4964
rom 4961
▁Cons 4961
▁वर्षसम्म 4961
क्न 4960
▁earthquake 4957
▁App 4956
aud 4955
▁conflict 4955
ns 4954
▁data 4954
ada 4953
▁भ्रष्टाचार 4952
ese 4951
▁मिश्र 4951
▁आश 4950
▁ग्र 4950
uc 4948
▁नेकपा 4948
▁उपकरण 4947
▁several 4946
▁पुनर् 4945
.5 4944
alk 4939
▁likely 4939
▁भूकम्प 4939
यको 4938
ुर् 4934
▁Jos 4934
▁गुरु 4934
▁दिइएको 4932
▁पत्ता 4932
▁Christ 4931
▁व्यक्तिलाई 4929
▁सर्वोच्च 4929
टको 4928
सीको 4928
ains 4925
▁song 4925
▁जनताले 4925
▁२३ 4925
किएको 4923
▁buy 4923
▁डिजाइन 4923
▁सञ्जाल 4923
▁जवाफ 4921
▁common 4920
▁search 4918
▁regard 4916
▁चिन्ता 4914
▁heav 4913
▁almost 4911
imal 4906
▁subject 4906
▁key 4904
▁property 4903
▁बनाएको 4903
▁चाहे 4902
ops 4900
▁बढाउन 4900
▁tried 4898
▁बेच 4896
▁व्यावसायिक 4896
▁compet 4895
ेत 4894
▁पर्व 4886
▁आँ 4885
▁import 4884
▁प्रभावकारी 4883
AR 4882
▁bo 4882
▁par 4882
▁Municipality 4881
▁operation 4880
▁लाइन 4878
भे 4877
▁क्ष 4877
िम 4873
▁Krishna 4872
▁voice 4871
▁लेखक 4871
▁Army 4870
▁dra 4870
▁Med 4869
▁displ 4869
▁सङ्गीत 4869
▁कुञ्जी 4868
▁Health 4867
▁उम्मेदवार 4866
▁बिना 4865
▁rules 4864
▁खेलमा 4864
▁स्तर 4864
eep 4862
▁Plan 4861
▁appear 4861
▁राखेको 4859
▁संस्थान 4856
▁राखे 4853
ms 4852
▁Republic 4852
▁Bab 4851
▁anyone 4851
▁कठोर 4849
gr 4845
▁forces 4845
▁farm 4843
▁महत्वपूर्ण 4841
▁State 4839
ression 4837
▁जोन 4837
▁investigation 4836
निया 4834
▁North 4834
akh 4833
▁Comm 4830
▁पत्रिका 4830
▁साइ 4828
क्क 4824
▁cases 4824
read 4822
ple 4821
नुभन्दा 4821
▁Because 4820
▁accused 4820
▁recently 4820
▁रक्षा 4820
▁sim 4819
▁योग्य 4817
▁पदार्थ 4816
वेश 4814
प्ता 4813
▁न्यायाधीश 4812
▁behind 4808
▁needed 4808
ever 4805
ries 4801
तन्त्र 4799
कर 4798
▁अतिरिक्त 4797
▁Pl 4796
▁department 4794
्याप 4792
▁झ् 4790
▁often 4789
ring 4788
▁Up 4787
▁Of 4785
▁happy 4785
ष्टि 4782
▁ban 4781
▁opposition 4778
▁अंश 4778
▁बैठकमा 4778
▁prepared 4777
▁बढ्दो 4775
▁उत्पन्न 4773
न्टि 4772
▁perform 4769
▁grad 4768
▁West 4767
नुपर् 4764
ल्स 4763
▁wrong 4760
▁forced 4755
▁केटी 4755
▁Section 4752
▁सिका 4752
ृद्धि 4751
▁स्थ 4751
▁hope 4749
▁letter 4749
▁sold 4749
▁शीर्ष 4747
▁towards 4745
▁गणतन्त्र 4742
▁paid 4741
now 4740
▁ser 4736
▁द्वन्द्व 4733
▁phot 4731
▁mis 4730
▁१०० 4730
ially 4729
imin 4728
▁फ्रान् 4727
▁river 4726
▁Every 4725
▁closed 4725
▁पाइन्छ 4725
▁टी 4724
▁turn 4722
▁Center 4720
▁नहु 4719
osing 4717
▁क्रम 4717
▁trib 4716
▁खोजि 4715
▁decl 4714
▁हिं 4714
▁prescribed 4713
esp 4712
▁लगानीकर्ता 4711
▁weak 4710
▁दोहो 4710
▁ल्याउन 4710
▁exc 4709
▁नामक 4709
▁मन्दिर 4707
▁jud 4705
af 4704
van 4704
▁जम्मा 4704
▁50 4703
▁groups 4703
▁expect 4700
▁popular 4700
▁हुनुपर्छ 4698
ining 4697
▁सत्ता 4697
▁शे 4696
▁distrib 4695
▁brother 4694
▁खाना 4692
mi 4691
▁उपयुक्त 4691
▁Bir 4690
पद 4689
▁राख 4689
खु 4688
▁भर् 4688
मय 4685
▁ढा 4684
eter 4681
let 4681
बाहिर 4681
▁di 4681
▁sit 4680
क्का 4678
▁banks 4677
▁sure 4677
▁ज्ञान 4677
▁coll 4675
▁sell 4675
▁getting 4674
▁वार्षिक 4674
▁भर्ना 4673
न्छु 4672
▁Vice 4672
वाल 4671
▁message 4671
▁जिल्लाको 4671
▁deb 4670
▁सकेको 4669
▁रोज 4667
▁Why 4666
▁required 4666
▁जनतालाई 4666
▁मालिक 4665
▁currently 4664
▁created 4661
▁democratic 4659
▁mid 4659
inal 4656
▁Budd 4656
iting 4655
▁ev 4655
▁पहुँच 4655
ital 4651
▁threat 4650
▁July 4649
▁electricity 4649
▁खान 4649
ze 4647
ild 4644
ते 4643
▁प्रकारको 4640
pr 4638
▁सजिलो 4638
चन 4635
▁त्यसो 4634
▁success 4631
▁conc 4630
▁दर्श 4622
▁प्रतिनिधित्व 4622
mit 4621
▁दौड 4619
पालिका 4618
ङले 4613
स्त्र 4613
▁चाहन्छ 4613
▁प्रश्वास 4613
▁नियमित 4612
ta 4611
▁Other 4611
इल 4608
▁प्राप्ताङ्क 4607
oring 4604
▁appro 4603
ेलले 4602
▁यहू 4600
▁समान 4600
▁energy 4599
▁छन 4598
▁ट्रा 4598
▁rule 4596
ctions 4595
▁mentioned 4590
▁धु 4589
▁सिफारिस 4589
दिए 4588
परी 4588
ges 4587
J 4585
ग्रा 4585
▁< 4585
▁Bhattarai 4585
▁Gurung 4585
▁successful 4584
▁गुनासो 4581
▁Wh 4580
▁लाग्ने 4579
▁21 4578
▁informed 4577
▁अधिकारीले 4577
the 4576
▁झन्डै 4576
र्च 4574
यु 4568
ञ्चल 4567
▁create 4567
ाउँदै 4566
▁एल 4566
raj 4562
val 4560
यद 4560
▁लगाउने 4560
ived 4558
▁disapp 4558
▁gener 4558
▁prices 4558
▁टाउको 4557
▁investig 4556
▁होस् 4556
▁det 4554
▁बासिन्दा 4554
▁लिएको 4554
▁औ 4553
क्रिया 4549
▁Ass 4548
▁अथवा 4547
▁परमेश्वरले 4546
cast 4543
▁October 4543
▁spread 4543
▁cause 4541
▁playing 4541
▁गरिन् 4540
▁families 4539
नाइ 4536
▁विक 4535
▁आउँछ 4533
▁बिलियन 4533
▁त्रि 4532
▁fore 4530
▁अनुदान 4530
▁काग 4529
▁ब् 4529
▁condition 4528
▁pract 4528
▁सक्नुहुन्छ 4524
abababab 4523
▁celebr 4522
▁फर् 4522
▁फुट 4522
▁रहेछ 4522
▁सपना 4520
▁हस्ताक्षर 4520
▁houses 4519
▁institution 4519
▁joint 4519
▁mem 4519
न्टा 4518
▁२०५ 4518
▁words 4517
पक्ष 4516
हरूबाट 4516
▁Gir 4516
म्बरमा 4515
्ला 4514
▁green 4513
▁pri 4513
▁aut 4510
▁धेरैजसो 4510
▁daily 4509
▁ट्या 4509
रीले 4508
नीय 4504
▁पोख 4504
▁विज्ञान 4504
day 4501
▁character 4501
▁fell 4498
▁­ 4498
▁मार् 4498
र्फ 4497
▁games 4496
▁ऋ 4496
▁ताल 4494
▁कदम 4493
▁सबैले 4493
▁त्य 4492
▁दृष्टिकोण 4492
▁बढ्दै 4491
▁लगाउन 4490
▁aware 4487
ream 4486
ोष 4486
▁clean 4486
▁&#9 4485
कास 4482
क्रमण 4482
▁vehicles 4482
▁पृथ्वी 4482
▁Or 4481
▁ir 4481
▁टेलि 4479
-2 4478
▁sil 4477
▁नसक्ने 4477
दय 4474
▁आम 4470
▁अत्यन्त 4464
▁रहने 4464
▁higher 4462
ti 4461
्च 4460
▁खासगरी 4460
मल 4458
▁check 4456
▁मूर् 4451
अगाडि 4449
▁parents 4449
ङको 4448
▁especially 4448
rip 4446
▁अन्तर्गत 4446
▁थालेको 4446
▁भर 4446
ball 4443
▁पाउन 4443
सू 4442
idd 4440
▁बमोजिमको 4436
▁स्प 4435
▁happ 4433
▁failed 4432
▁plant 4432
▁आकार 4432
▁ple 4431
▁स्था 4431
न्टी 4429
▁War 4427
▁अम 4427
▁मै 4426
कूल 4425
▁accident 4424
ivers 4421
ched 4419
▁ne 4418
लेख 4417
▁Sar 4417
▁सरकारलाई 4417
▁Har 4416
▁जबकि 4416
▁बोल् 4416
▁= 4415
▁word 4414
▁प्रारम्भिक 4414
▁Bal 4410
▁हतियार 4410
▁सहज 4409
gan 4408
छिन् 4408
▁Hospital 4408
▁फल 4407
▁पू 4405
▁middle 4403
▁दी 4400
▁मुलुकमा 4400
▁सीमित 4399
ालि 4398
▁Bas 4398
कृ 4395
▁happen 4394
▁details 4393
▁जापान 4393
hold 4390
over 4390
▁फोन 4388
wal 4385
ember 4384
▁आश्चर्य 4384
▁दिनमा 4383
▁birth 4382
▁break 4381
ift 4380
टाइ 4378
▁कोठा 4377
▁gone 4375
सामा 4374
▁इतिहास 4374
▁ट्रे 4374
▁ढु 4374
de 4373
▁crit 4373
▁क्याम्प 4373
▁hol 4372
▁उचित 4370
ians 4369
▁Rai 4369
र्थी 4367
सलाई 4367
ract 4366
▁एकल 4366
▁कमजोर 4366
भूमि 4365
▁कहाँ 4365
itor 4364
▁victims 4364
AN 4361
ograp 4361
▁violence 4361
▁board 4359
▁changed 4358
▁प्रवृत्ति 4358
▁जर्म 4357
▁इस् 4354
▁स्वी 4351
▁corruption 4350
▁loc 4350
▁wid 4348
ीत 4347
▁विजय 4347
▁शैली 4347
▁Per 4346
▁value 4342
▁गरें 4341
gunj 4340
▁English 4339
शक्ति 4338
oun 4335
ृत 4333
▁Ed 4333
▁match 4331
▁चढ 4331
ङमा 4330
▁late 4330
▁Mor 4329
▁festival 4328
▁Most 4327
▁रेडियो 4327
▁enter 4325
▁farmers 4325
▁Spe 4324
▁vol 4324
▁boy 4323
▁होटल 4323
▁नभ 4321
▁terms 4318
aut 4316
lam 4316
▁released 4316
ident 4315
्रय 4315
▁example 4315
fore 4314
▁मेट 4311
▁संघर्ष 4311
▁मतदान 4310
्वास 4309
▁progress 4309
▁मुद्रा 4308
▁रोक्न 4306
▁सम्मेलन 4304
ried 4301
tern 4301
▁affected 4301
▁आयात 4301
▁उसलाई 4300
atory 4299
alf 4297
▁क्लि 4297
▁काउ 4296
▁Washington 4293
र्त 4290
▁धारणा 4290
हरी 4289
▁आपूर्ति 4289
रामा 4286
▁influ 4286
षा 4285
▁viol 4285
▁executive 4284
rest 4283
▁पाएको 4282
▁cover 4281
▁आइपु 4281
erc 4280
▁चेतावनी 4279
▁सम्पर्क 4279
▁ग्या 4277
हान 4276
▁कृष्ण 4276
▁November 4274
▁सकारात्मक 4273
▁spent 4272
▁जनसंख्या 4272
वै 4271
▁states 4271
▁नी 4269
▁City 4267
▁Jh 4261
tained 4260
▁bodies 4259
लेका 4258
▁स्टक 4258
▁dest 4257
▁आफूले 4255
ams 4253
▁कहिले 4253
स्रो 4252
▁broad 4252
▁महत्त्वपूर्ण 4246
▁२६ 4246
eth 4241
शन 4241
▁Inc 4241
▁ध्व 4241
▁तराई 4239
▁Dahal 4238
▁hon 4237
च्छेद 4235
पित 4235
सके 4235
ife 4233
▁अन्त्यमा 4233
▁partic 4232
▁भट्टराई 4232
▁network 4231
▁आन्दोल 4231
▁easy 4229
▁injured 4229
▁motor 4228
▁ह्या 4228
लाल 4225
oses 4224
धान 4223
▁Prov 4223
▁म्यान 4222
▁राष्ट्रसंघ 4222
▁उन 4221
ield 4220
ota 4220
▁developed 4219
नन् 4218
▁attract 4218
▁कर्जा 4217
▁expand 4215
▁बच्चा 4213
usion 4210
▁जसमा 4210
▁बलि 4209
▁हित 4208
इरहेको 4207
▁weeks 4207
▁wanted 4206
ety 4205
▁positive 4203
▁भनिन्छ 4203
▁achieve 4199
▁क्षेत्रका 4196
्छन् 4192
ten 4191
▁उत्कृष्ट 4191
▁तिमीहरूले 4190
▁दाहाल 4190
▁शाह 4188
▁एच 4186
▁भण्डार 4185
▁princip 4184
▁Our 4182
▁गण 4182
▁हाइ 4182
▁Post 4179
▁सट्टा 4178
▁active 4177
▁मन्त्रालयले 4177
▁raise 4175
ode 4174
▁writing 4174
▁स्वि 4173
▁hur 4170
inated 4169
▁लाई 4169
▁२७ 4169
▁भन्छ 4167
ानो 4166
▁शरीर 4166
ological 4164
▁sec 4164
▁सधैँ 4162
क्टर 4161
गरी 4161
▁बुद्धि 4161
ayan 4160
illed 4160
uman 4160
▁January 4160
▁अभिभावक 4157
get 4156
▁release 4156
▁क्षेत्रीय 4156
isc 4155
जित 4155
▁छवि 4155
▁Officer 4154
▁टोलीले 4154
▁recogn 4151
mission 4150
▁२८ 4150
▁कार्यालयमा 4149
▁Poudel 4148
▁employment 4148
एमा 4147
▁गर्छु 4147
▁त्यसमा 4147
section 4144
▁passed 4144
▁उपा 4144
▁अनुहार 4143
▁देउवा 4143
▁results 4140
▁Two 4138
▁request 4138
▁मानसिक 4138
ves 4137
▁मिला 4137
olog 4136
▁प्राकृतिक 4136
▁Pat 4134
▁धन 4132
ini 4130
दन 4129
सभा 4127
▁shown 4126
▁कामदार 4125
▁लाइ 4124
▁global 4122
▁laws 4122
धन 4121
▁March 4121
▁worked 4120
स्टर 4119
▁सम्भावित 4119
▁Asia 4116
▁offer 4116
▁पाएका 4116
▁लाग्यो 4115
▁School 4114
ging 4113
▁मोर्चा 4113
स्य 4111
▁performance 4110
टल 4109
क्सी 4108
हाल 4108
▁dam 4108
▁medical 4108
▁nature 4108
▁send 4108
▁प्रचण्ड 4107
▁stre 4106
▁गिरफ्तार 4106
▁नोक्स 4105
▁छि 4104
▁purpose 4103
▁bat 4096
▁thinking 4094
रिएको 4093
▁Sher 4093
▁wait 4093
imum 4092
वार्ता 4090
▁सेतो 4089
▁whose 4088
aur 4087
▁Himal 4087
▁running 4087
enty 4086
▁Bag 4086
▁personal 4086
▁एकपटक 4086
la 4085
ne 4085
▁conn 4085
▁फाइ 4085
itive 4083
▁अन् 4083
▁माथिल्लो 4083
म्बर 4080
▁ball 4080
▁rout 4080
▁कारणले 4080
▁source 4078
▁गर्नका 4078
▁Pal 4077
ङ्ग्रे 4076
▁अनलाइन 4075
▁yesterday 4074
ery 4073
▁भइसकेको 4072
▁सङ्केत 4072
▁pict 4071
▁एड 4071
▁राई 4071
▁आनन्द 4070
▁Ins 4069
▁व्यापारी 4069
▁title 4068
▁उपाय 4067
hib 4065
योग्य 4065
ened 4064
▁try 4064
▁पत्नी 4063
▁आवाज 4062
▁application 4061
▁char 4061
▁diss 4060
▁जान्छ 4060
▁प्राथमिक 4058
▁sym 4057
▁tourism 4057
▁दिनुभयो 4057
▁regul 4056
▁author 4055
▁Invest 4054
पूर्वक 4053
▁थु 4053
▁Deuba 4052
▁mountain 4052
▁महान 4052
▁६० 4052
ण्डा 4050
▁29 4050
▁German 4050
▁Dal 4049
▁stat 4047
▁August 4046
▁ess 4046
mer 4045
nder 4045
▁Jan 4044
▁grand 4044
▁छुट 4044
▁implemented 4041
▁तुलनामा 4041
▁ahead 4039
न्डर 4038
▁materials 4038
हामी 4034
▁urged 4034
▁प्रदर्श 4033
कालीन 4032
▁knowledge 4031
▁बढा 4030
लाम 4027
▁America 4027
▁बद 4027
▁24 4026
▁Let 4026
▁cross 4026
▁बस्न 4024
नेछु 4023
▁कक्षा 4022
▁inj 4018
▁मौसममा 4018
▁vill 4017
▁critic 4016
▁implement 4014
▁physical 4013
▁पार्टीको 4013
▁खुट्टा 4012
▁दिनको 4009
ening 4007
▁मोटर 4007
ees 4006
ror 4006
्रिक 4006
▁CPN 4004
▁prop 4004
▁separate 4004
pped 4000
स्टो 3999
▁विशेषता 3999
▁Are 3998
▁लाभ 3998
▁अभ्यास 3996
▁नगरी 3996
▁स्वामित्व 3996
olution 3995
▁Likewise 3995
▁रगत 3995
▁बनाइ 3993
▁medic 3992
aves 3991
uses 3991
▁प्रशिक्षण 3991
▁समितिका 3989
▁av 3988
ploy 3987
for 3986
▁series 3986
▁ब्र 3985
▁प्रमाणित 3984
▁super 3981
▁प्रि 3981
▁makes 3979
▁विपक्षी 3979
ule 3978
▁पूर्वाधार 3977
भु 3976
लोकन 3975
duct 3973
▁More 3973
▁watch 3973
▁cal 3969
क्य 3967
▁मुख 3966
प्रा 3965
ेरो 3965
फल 3964
arly 3963
▁club 3963
▁player 3963
▁similar 3962
▁Pokhara 3961
ament 3960
▁Bush 3960
▁यसअघि 3960
▁except 3959
▁कस्तो 3959
▁काठमाडौँ 3958
▁सङ्ख्या 3958
▁wants 3957
ेद 3955
▁फिल् 3955
▁मौका 3955
▁implementation 3954
ility 3952
▁sem 3952
uls 3951
▁elected 3951
ه 3950
राको 3950
▁जाति 3950
▁पुनर्निर्माण 3950
▁Prachanda 3949
▁धार्मिक 3949
ires 3947
डामा 3947
त्ने 3947
▁नव 3947
▁पर्दा 3946
▁सञ्चाल 3946
▁discussion 3945
▁leading 3945
▁link 3944
सिन 3943
▁tele 3943
▁रुप 3943
▁प्रगति 3940
▁प्रयोगकर्ता 3939
▁झर् 3938
▁गरेमा 3937
▁२९ 3936
▁modern 3935
atch 3933
▁रुपैया 3932
▁कवि 3931
▁maintain 3930
▁निस्क 3930
▁यात्रु 3930
▁रुपैयाँ 3930
क्र 3929
▁European 3927
▁Kal 3926
▁significant 3926
▁Sen 3925
▁चोट 3925
▁सप्त 3924
rown 3923
ूट 3923
▁युरोप 3923
▁happened 3922
▁transfer 3922
▁Khan 3921
▁relationship 3921
▁entered 3919
▁मङ्गलबार 3919
▁Jesus 3917
▁झु 3916
▁poet 3913
▁गोल 3913
▁विद्रो 3912
ipur 3911
मू 3910
▁जडान 3910
▁sens 3908
▁खाद्य 3907
rict 3906
▁insp 3905
▁संवाद 3905
▁allowed 3904
iding 3903
▁विधेयक 3903
▁novel 3901
reg 3900
▁royal 3900
▁लोकप्रिय 3900
▁ministry 3897
▁nor 3897
▁प्रेस 3896
▁भन्नुहुन्छ 3896
म्स 3894
▁आतंक 3894
ension 3892
▁Public 3892
▁वाल 3890
▁नाटक 3889
▁Group 3888
▁शर्त 3888
ome 3887
▁structure 3887
▁सचेत 3887
सनको 3886
▁Her 3886
▁लगभग 3886
▁सामान 3886
फ्ट 3884
▁चर्चा 3883
▁शैक्षिक 3883
▁हावा 3882
apur 3879
▁Central 3879
▁pol 3879
▁सङ्क 3879
anda 3878
▁निरी 3878
▁Shiv 3877
▁काममा 3877
▁आव 3876
▁एकजना 3875
▁rural 3874
कहाँ 3873
▁nine 3873
▁चिनि 3872
वक 3871
▁बनाउ 3870
ंगा 3869
▁felt 3869
▁कटौती 3869
▁देशका 3869
▁ang 3868
▁बने 3868
▁सहायक 3867
▁sexual 3866
षण 3865
▁abs 3864
▁प्रतिबन्ध 3863
▁सिद्धान्त 3863
▁शाखा 3860
▁अनुरोध 3859
down 3858
▁sales 3856
▁कम्पनीको 3855
▁vehicle 3854
▁२०४ 3854
▁कर्पोरे 3851
▁organiz 3850
▁prison 3850
▁residents 3847
▁fair 3845
▁park 3844
▁pres 3844
▁३५ 3842
▁करार 3841
▁चौध 3841
▁हरि 3841
▁included 3839
▁parts 3838
▁named 3835
▁फर्म 3835
cious 3834
िनी 3833
▁presented 3832
▁गौ 3832
▁Sw 3830
▁assistance 3830
▁चिन् 3830
▁१९८ 3827
▁कार्यसम्पादन 3826
▁भन्नु 3826
▁entire 3825
▁ren 3825
▁पुग्न 3825
▁fiscal 3824
पण 3823
▁High 3823
▁lim 3823
▁साधारण 3823
त्ति 3822
▁pen 3822
▁भिन्न 3821
erson 3820
▁बिमा 3820
▁हट 3820
▁छनौट 3819
ief 3818
▁तिमीले 3818
▁Authority 3815
▁selected 3814
▁recon 3813
िन् 3811
त्ती 3809
▁निर्देश 3809
izing 3807
▁दशक 3804
▁नो 3803
▁प्रकाशन 3803
▁मूल्याङ्कन 3803
▁स्थायी 3803
▁provision 3802
▁worship 3802
▁दर्जन 3802
▁साधन 3802
▁अध्या 3801
स्ती 3800
▁additional 3800
▁headquarters 3800
▁engine 3799
▁अघिल्लो 3798
▁विरोधी 3798
▁तिमीलाई 3796
▁gas 3795
▁माओवादीले 3795
युक्त 3793
ask 3792
▁यू 3792
▁ment 3791
▁थो 3791
▁everything 3790
▁धम्की 3790
▁single 3789
ban 3788
▁प्रमाणपत्र 3788
ourage 3787
▁चिया 3787
▁student 3785
▁airport 3782
▁उत्सा 3782
▁गर्छौं 3782
▁product 3781
▁टिकट 3780
▁neg 3777
▁अनुगमन 3777
▁निरा 3776
▁सल्लाह 3776
ading 3775
▁परम्परागत 3775
▁क्रान्ति 3774
▁evening 3773
यौं 3770
▁include 3770
▁whole 3770
▁earlier 3769
iah 3768
▁द्व 3768
प्रे 3767
▁assist 3767
▁responsible 3767
▁अपना 3767
▁effective 3766
▁अमेरिकामा 3765
where 3764
aries 3762
imes 3762
▁2006 3762
dom 3761
▁providing 3758
▁Panch 3756
▁id 3756
▁विज्ञापन 3755
ney 3754
▁capacity 3752
▁begun 3751
▁Car 3750
▁agreed 3750
भाग 3749
▁Such 3749
▁खेती 3749
जमा 3748
▁discuss 3747
चे 3746
▁deep 3746
▁institutions 3745
▁purch 3744
▁stock 3744
▁इतिहा 3744
based 3743
ervation 3743
▁पवित्र 3743
▁प्राथमिकता 3743
▁port 3741
▁1959 3740
▁contact 3738
पोर्ट 3737
▁shows 3737
▁literature 3736
▁कन् 3734
ull 3733
▁runs 3733
▁थिएनन् 3727
▁ele 3726
▁someone 3726
▁कोरिया 3726
▁tour 3724
▁Meanwhile 3723
▁तथ्य 3723
eration 3721
▁pat 3721
▁अनुस 3721
▁आधुनिक 3721
▁Iran 3720
▁slow 3720
▁हाँ 3719
▁Sing 3716
▁establish 3716
▁भोलि 3716
▁वैज्ञानिक 3716
▁News 3715
▁उहाँको 3714
▁कतै 3713
▁स्थिर 3713
जुली 3712
▁कर्तव्य 3711
▁Mohamed 3709
▁technical 3709
▁histor 3708
▁बेल 3708
▁वीर 3707
▁becoming 3705
▁मी 3705
▁२००६ 3704
रित 3701
▁तनाव 3701
using 3699
▁ca 3699
▁नियुक्त 3699
▁निर्यात 3698
▁महासंघ 3698
▁Gork 3697
▁आर् 3697
ixed 3695
▁कार्ड 3695
▁doll 3694
▁क्षण 3694
▁खास 3694
▁recommend 3693
▁दृ 3693
▁संस् 3693
▁गर्नुहुन्छ 3692
▁द्वारा 3691
▁गर्नुभएको 3690
डिङ 3689
▁MP 3688
▁custom 3688
केका 3687
▁KATHMANDU 3687
bed 3686
▁Education 3686
▁red 3685
▁काट 3685
्लो 3684
▁fil 3684
▁बाहि 3684
▁साँ 3684
▁कुराहरू 3683
▁सांसद 3683
▁claimed 3682
▁appoint 3681
▁revenue 3681
चना 3679
▁December 3679
▁पुष्टि 3679
▁राउ 3679
▁राणा 3679
aper 3678
alled 3677
ठो 3676
▁pal 3676
▁चाँडै 3676
▁स्वागत 3675
▁प्रकार 3674
ational 3673
टले 3672
▁bu 3668
▁diffe 3668
▁safe 3668
▁आयोजित 3668
▁marriage 3667
▁बम 3667
▁22 3666
▁तरिकाले 3666
▁Constituent 3665
▁rise 3665
▁उपत्यका 3664
aught 3663
lying 3663
▁however 3663
▁पञ्च 3663
▁रहन्छ 3663
▁beginning 3662
▁circ 3662
द्य 3661
▁cop 3661
▁Company 3660
▁बताउ 3660
struct 3658
▁सभापति 3658
▁स्या 3658
▁३१ 3658
▁Indust 3656
▁minutes 3656
▁गइरहेको 3656
▁चिकित्सा 3656
▁भागमा 3656
▁स्वयं 3656
ून 3655
▁उल्लेखनीय 3655
▁राखिएको 3654
हमा 3652
्यव 3652
▁सजाय 3651
▁198 3650
▁40 3650
▁review 3650
▁पै 3650
▁हवाई 3649
▁Afric 3647
▁यसैगरी 3647
▁लियो 3647
▁मर् 3646
▁February 3645
▁throughout 3645
▁व्यक्तिको 3644
▁Earlier 3643
OR 3640
▁ap 3640
▁claim 3640
▁इट 3640
▁चर्च 3639
क्सा 3638
▁sources 3638
▁सबैलाई 3636
▁प्रवाह 3635
ene 3634
▁prime 3632
दको 3631
नुभ 3631
▁Rec 3630
▁बाढी 3630
▁lear 3628
▁वाणिज्य 3628
oud 3627
▁qual 3624
▁डब्ल्यू 3622
मार्फत 3620
▁creat 3620
▁चौथो 3620
▁कागजात 3618
▁जेल 3618
ait 3613
▁Korea 3613
▁पुग्ने 3613
▁फु 3612
ड्ने 3611
▁nations 3608
▁टिम 3608
▁impro 3605
▁तथ्याङ्क 3605
र्ण 3604
▁prevent 3604
▁Director 3603
▁पर्ख 3603
▁कसैलाई 3602
▁खड् 3602
▁KC 3600
▁diplom 3599
▁i 3599
▁इन्टरनेट 3599
▁मधे 3599
▁ill 3598
▁journal 3597
▁सुने 3597
▁operating 3593
▁swe 3593
र्व 3592
लम्ब 3592
▁interview 3592
orters 3591
▁anti 3591
वार्ड 3590
फोन 3589
▁आक 3589
▁सङ्ग 3589
▁अस्पतालमा 3588
▁introdu 3587
▁कसै 3587
.1 3586
▁print 3586
▁host 3585
▁mark 3585
किए 3584
▁प्रचार 3584
▁महो 3584
▁lab 3583
▁स्थितिमा 3583
▁largest 3582
▁Europe 3581
गरमा 3580
▁mass 3578
▁चासो 3578
▁fourth 3577
शु 3576
▁patients 3572
▁नारा 3572
▁June 3570
रेन्द्र 3568
▁मुस् 3568
▁Bra 3567
फिक 3566
▁document 3566
▁mult 3565
▁पाकिस्ता 3565
▁surpr 3564
▁पुस्त 3564
▁विभागले 3563
hood 3562
दारी 3562
▁UN 3562
▁el 3561
▁organ 3560
▁धितोपत्र 3560
▁consult 3559
▁limited 3559
▁निर्वाचित 3558
▁consider 3557
▁directly 3557
▁Mus 3556
▁nom 3556
▁consensus 3555
▁संगठ 3555
▁है 3555
aly 3554
द्र 3554
▁हल्ला 3553
ox 3552
eared 3551
▁हुनेछन् 3550
तृ 3549
▁clim 3549
▁sad 3549
▁राखेर 3549
▁सार् 3549
▁नष्ट 3548
▁विनि 3547
▁दृष्टि 3546
▁Sur 3545
▁dem 3545
▁स्थित 3545
aya 3544
▁dream 3544
▁earth 3544
hers 3543
▁अविश 3543
▁पसल 3543
▁हुनाले 3543
▁1, 3541
▁डिसे 3541
q 3539
▁vac 3539
aken 3538
श्व 3538
▁industrial 3538
▁प्रसारण 3538
rew 3537
डको 3537
फे 3536
▁doz 3536
▁वर्षा 3536
▁खेल्न 3534
vent 3533
▁Those 3533
hat 3532
▁lower 3532
▁Only 3531
▁थालेका 3530
एनन् 3528
▁commission 3528
▁विश्लेषण 3528
ishing 3527
▁Press 3527
▁tradition 3527
▁पेट 3527
▁नम्बर 3526
न्ती 3525
▁विभाजन 3525
न्त्र 3524
▁num 3524
▁Chandra 3523
▁prev 3523
▁बहि 3523
म्भ 3521
▁वर्णन 3521
▁idea 3520
▁जग 3520
▁सत 3520
▁context 3519
▁रङ 3517
▁शिव 3517
.2 3516
▁evidence 3516
▁सुन्दर 3516
rent 3514
ङ्गा 3514
▁style 3514
▁माध्यम 3514
▁मिल् 3514
ground 3513
▁aspect 3513
नेट 3512
▁advant 3511
▁confir 3510
▁मधेश 3510
▁award 3509
iet 3508
ौल 3508
▁२०६ 3508
person 3506
▁Home 3506
▁प्रतिज्ञा 3506
▁ल्याउने 3506
ough 3504
▁internal 3504
▁commercial 3503
▁नसकेको 3503
▁देखे 3502
▁जोडि 3501
▁Federation 3500
टिङ 3499
▁conditions 3499
▁बनाएर 3498
पर्ने 3497
हरूमध्ये 3497
▁color 3497
▁individ 3495
▁आयोगले 3495
साथै 3494
▁Narayan 3494
▁proposed 3494
▁ve 3494
▁अग 3494
▁इरा 3494
▁लेखा 3493
▁ब्रिटिश 3491
▁23 3490
▁conv 3490
▁dig 3490
olve 3489
▁religious 3489
▁Another 3487
▁tourists 3487
back 3486
▁decre 3486
प्ट 3485
▁द् 3485
▁लिमिटेड 3485
ayed 3484
ज्य 3484
▁निस् 3483
der 3482
▁analy 3481
▁उपनियम 3481
▁तीव्र 3481
▁त्यस्ता 3481
▁submitted 3480
▁ऐतिहासिक 3480
▁समूहले 3480
▁cricket 3479
▁गुणस्तर 3479
▁step 3478
▁शहरमा 3478
कट 3477
▁task 3477
▁खेल् 3477
X 3475
ूह 3474
▁नभएका 3474
▁भारतमा 3474
▁सेप्टेम्बर 3474
ches 3473
म्र 3472
ecut 3469
▁changes 3469
▁सन्त 3469
▁तुल 3468
ald 3467
▁protest 3467
▁सफा 3463
यन्त्र 3461
▁fif 3461
▁त्यसले 3461
▁Ac 3460
▁तपाईंले 3460
▁भारतले 3460
▁सूर्य 3460
aging 3459
ior 3459
▁paper 3459
▁model 3456
▁अदालतले 3456
▁धनी 3456
▁माया 3456
▁Hol 3455
▁moving 3454
▁विविध 3454
rie 3453
▁path 3453
aration 3452
▁Cont 3451
▁exam 3451
▁license 3449
▁अप्र 3449
▁brok 3447
▁कार्की 3447
▁वटा 3446
▁scored 3445
▁जल 3445
पान 3444
▁comb 3444
▁foc 3444
तापूर्वक 3443
वाही 3443
▁प्रतियोगि 3443
▁domestic 3442
▁प्रशि 3442
▁हक 3441
▁गाह्रो 3439
▁count 3435
▁flood 3435
▁magazine 3435
▁Trans 3434
▁दाऊ 3433
▁तल्लो 3432
▁League 3429
▁ruling 3428
▁chair 3426
▁registered 3426
▁गएका 3425
ool 3424
▁Karki 3424
▁समुद्र 3424
igr 3422
▁indic 3419
▁अक्टोबर 3419
▁प्ला 3419
ently 3418
▁Rel 3418
▁fast 3417
▁repeated 3417
▁च्याम्पियन 3417
▁पूँजी 3417
urning 3416
▁हस्तान्तरण 3416
▁doesn 3415
▁बिस्तारै 3414
मेल 3412
▁मिटर 3412
▁spe 3411
▁युनि 3411
isions 3410
एँ 3410
▁employee 3409
घन 3408
▁kill 3408
▁चिकित्सक 3407
cell 3405
▁video 3405
▁rob 3404
ential 3403
▁Bhut 3403
▁sleep 3403
▁ever 3402
▁manager 3399
ows 3398
▁connect 3398
▁हुनुपर्ने 3398
▁नभई 3396
▁युरोपेली 3396
▁Day 3394
कन 3393
▁Supreme 3392
▁agencies 3391
▁secret 3391
▁जरुरी 3391
▁compared 3388
▁अवसरमा 3388
▁Local 3386
ropol 3385
▁Valley 3385
▁majority 3385
दू 3384
▁सक 3384
तर 3383
▁Tra 3383
▁pet 3382
▁भेला 3382
▁treat 3381
▁सेन्ट 3381
गार 3380
नाका 3379
▁demanded 3379
▁बढाउने 3379
▁अदालतमा 3378
▁वृ 3378
▁संवैधानिक 3378
▁फर्का 3377
▁५०० 3377
ternal 3376
शिया 3376
▁घि 3376
▁पारेको 3376
रान 3375
सँगको 3374
▁adj 3374
▁छोटो 3373
▁साँच्चिकै 3373
▁policies 3372
▁reform 3371
▁दोषी 3371
▁newsp 3370
▁occasion 3370
हरा 3369
▁justice 3369
eds 3368
▁launched 3367
▁doub 3366
▁liter 3366
▁साझेदारी 3366
▁चलिरहेको 3365
add 3364
लाले 3364
▁opt 3363
▁पुनराव 3363
self 3362
▁north 3360
▁carry 3359
▁पुग 3359
▁हिमाल 3359
▁online 3358
▁parliament 3358
▁कानून 3358
▁भण्डारी 3358
▁Gy 3357
▁सङ् 3356
▁हिर्का 3356
मिन 3355
्यू 3355
▁demands 3354
▁initiative 3353
▁लेखिएको 3353
▁सशस्त्र 3352
wise 3351
कहरूले 3350
▁cadres 3350
▁submit 3350
▁यसो 3350
खर 3348
▁promot 3348
▁औसत 3348
isl 3345
ither 3345
ेत्र 3345
▁town 3345
▁प्रान्त 3345
▁व्याख्या 3345
uli 3344
सनले 3343
▁Ter 3343
▁produced 3343
▁गर्दैन 3343
सम् 3342
हण 3341
▁About 3341
ames 3340
च्च 3339
मार 3339
▁sun 3339
वती 3338
▁phone 3338
ल्ली 3337
▁जन् 3337
▁भन्नाले 3337
▁Pri 3336
▁संयोजक 3336
लाका 3335
▁export 3335
▁stru 3335
▁आत् 3335
▁कप 3335
ims 3333
▁मेल 3333
्यास 3332
▁मुक्त 3332
▁Sah 3331
▁text 3331
▁दिव 3331
▁satisf 3330
BC 3329
थम 3328
▁पहल 3328
▁सडकमा 3327
माको 3326
▁नगर 3326
▁सालमा 3325
चर 3324
▁cities 3324
▁potential 3324
▁छुट्या 3324
▁हडताल 3324
▁पीडा 3323
▁temple 3322
▁परिणत 3322
ालो 3321
▁विस्तृत 3319
▁priority 3318
▁rain 3318
▁तरिका 3318
▁Bhandari 3316
▁contin 3316
▁coordin 3316
▁Who 3312
▁आवास 3312
▁infrastructure 3311
▁विधि 3311
▁prosper 3310
▁स्वर्ग 3310
▁सांस्कृतिक 3309
▁municipality 3308
▁option 3308
▁Service 3307
▁rupees 3307
▁श्रृंख 3307
यमा 3306
very 3305
▁weapons 3305
जार 3304
निम्ति 3304
uth 3302
▁Club 3301
▁withd 3301
▁स्पे 3300
▁chairman 3299
▁हिसाब 3299
▁coun 3297
बिन 3296
▁Sm 3295
▁भक्त 3295
▁Corporation 3294
▁दिएर 3294
agers 3293
▁decades 3293
▁vice 3293
▁राजनी 3293
द्धा 3292
▁regional 3292
▁wall 3291
▁कस 3291
▁Under 3290
▁hear 3290
▁huge 3290
▁भन्सार 3287
uals 3286
▁obs 3286
▁NC 3285
▁charge 3285
▁faith 3285
enses 3284
▁dispute 3284
▁labor 3283
▁cultural 3281
मती 3280
राइ 3280
▁Delhi 3279
▁wrote 3279
नित 3278
▁filed 3278
▁cho 3277
▁questions 3276
▁customers 3275
▁चो 3275
▁gen 3274
▁mist 3274
▁लडाइँ 3274
त्कार 3273
▁attempt 3273
▁pack 3272
▁sect 3271
▁Today 3270
▁कानूनी 3270
▁दरबार 3270
▁दीर्घकालीन 3270
ग्ने 3269
▁उनीहरु 3269
▁मौलिक 3269
▁रेड 3269
ertain 3267
कुल 3267
▁महत्व 3267
ूर 3266
▁bal 3266
▁hotel 3266
▁mot 3265
▁किसि 3265
▁तिमीहरूलाई 3265
केट 3263
▁Chaudhary 3263
▁shot 3263
▁solution 3263
▁सिं 3263
arel 3262
▁anc 3262
▁method 3262
raw 3261
yn 3261
न्सी 3261
▁Where 3261
▁विद्युत 3261
▁Rana 3260
▁deter 3260
▁थप् 3260
▁महिनामा 3260
ilities 3259
stitution 3258
▁murder 3258
▁worth 3258
olved 3257
ूर् 3257
▁instead 3256
▁interests 3256
iversity 3255
▁चल् 3255
▁रह्यो 3255
▁राज्यको 3255
▁supply 3252
▁बन्ने 3252
▁संस्करण 3250
▁घो 3249
▁निष्कर्ष 3249
▁entreprene 3248
▁thousands 3248
▁vote 3248
▁परमेश्वरको 3248
▁Je 3247
▁highest 3247
यौ 3246
▁तर्फ 3246
ables 3245
ila 3245
▁preparing 3245
▁succeed 3245
▁पहाडी 3245
▁Mon 3244
▁generation 3244
▁image 3244
▁हामीसँग 3244
▁completely 3243
▁वायुसेवा 3243
▁firm 3242
▁प्रकृति 3242
▁अवैध 3238
▁माल 3238
देव 3237
र्सि 3237
▁कानुनी 3237
▁ढोका 3237
▁agree 3236
▁दायित्व 3236
▁पुस्ता 3236
▁songs 3235
▁type 3235
▁एसि 3235
▁enjoy 3233
▁ut 3233
ami 3232
wan 3231
▁Fin 3229
▁grow 3229
oj 3228
▁क्रियाकलाप 3226
▁squ 3225
stant 3224
तान 3224
net 3223
rs 3222
▁परिचय 3222
वस्तु 3221
▁mouth 3221
▁appropriate 3220
▁crowd 3220
▁god 3220
▁identity 3220
▁white 3220
▁थप्नुभयो 3220
▁पुल 3220
▁काठ 3219
▁सुरुमा 3219
▁Qu 3218
▁vir 3218
▁beat 3217
▁Women 3215
▁आरो 3215
▁नु 3213
▁हुनसक्छ 3213
▁base 3211
▁तपाईंको 3211
▁advert 3210
▁राजमार्ग 3210
▁capt 3209
▁केटा 3209
स्व 3208
▁insurance 3208
▁कोरि 3208
▁alone 3206
▁announce 3205
▁debate 3203
rim 3202
▁Pokh 3202
झ् 3200
▁shares 3200
▁पुगेका 3200
▁सामान्यतया 3200
▁सिक् 3200
▁arri 3199
▁easily 3199
▁persons 3199
▁प्रावधान 3198
abor 3197
▁fig 3197
▁चित 3197
▁विमानस्थल 3197
cer 3196
▁showed 3196
▁बस्ती 3196
▁block 3195
▁मुटु 3195
▁Will 3194
▁East 3192
▁carrying 3190
▁spokesman 3190
▁प्रकट 3189
arent 3188
द्द 3188
▁sister 3188
▁सुनिश्चित 3188
▁removed 3187
▁जटिल 3187
▁save 3186
▁despite 3185
▁conducted 3184
▁परमप्रभुको 3184
term 3183
▁expensive 3183
▁समर् 3183
ेन्द्र 3181
▁Kar 3181
▁Moh 3181
▁arrived 3181
▁सबभन्दा 3180
ould 3179
▁emerg 3179
▁परम्परा 3179
room 3178
▁convention 3177
▁experien 3177
▁ship 3177
▁माछा 3176
▁रेखा 3175
▁हातमा 3175
▁बसि 3174
▁Adhikari 3173
▁अर्ब 3173
▁फ्याँकि 3173
▁space 3172
▁Cor 3170
▁प्रवर्द्धन 3170
anj 3168
▁बाह 3166
erve 3165
▁आएर 3165
▁जुलाई 3165
न्दु 3164
▁अहिलेको 3164
▁थियौं 3164
कृति 3163
▁kn 3162
▁strike 3161
▁भग 3161
▁हेर्ने 3161
▁चरणमा 3160
भार 3158
▁संसदीय 3156
▁सन्तु 3156
▁understanding 3155
▁kid 3152
▁खत 3152
▁चलाउने 3152
▁भनेका 3152
ecutive 3151
▁independent 3151
▁ल्याएको 3151
ern 3149
▁Union 3149
▁कार्यालयले 3149
▁गएर 3148
▁Stud 3146
vel 3144
▁shop 3144
▁इच्छा 3144
▁शंका 3144
anged 3143
▁goes 3143
▁ताजा 3142
▁बेर 3142
▁हुनुहु 3142
▁रातो 3141
▁bit 3140
▁collection 3138
▁meaning 3138
▁त्रुटि 3138
▁मल् 3138
nings 3137
ुरू 3137
▁distribution 3137
cent 3136
vention 3136
▁सम्मेलनमा 3135
▁loans 3134
▁girl 3133
परेको 3132
▁कारखा 3132
▁क्रमशः 3131
rap 3130
▁Finance 3130
▁First 3130
▁suffering 3129
▁den 3128
▁पिता 3128
▁नियुक्ति 3127
कू 3126
▁true 3125
गल 3124
▁Park 3123
▁negoti 3123
▁£ 3123
ato 3122
▁answer 3122
▁मित्र 3122
▁इरान 3121
▁remains 3120
▁scient 3119
▁किलोमिटर 3119
▁altern 3118
▁wild 3118
ख्यक 3117
▁regular 3117
▁सञ्चालक 3117
▁भौतिक 3113
▁सर्वोत्तम 3113
▁UPI 3112
▁coach 3112
iction 3111
द्रा 3110
▁प्रया 3110
▁सुदृ 3110
ङ्का 3109
▁bringing 3108
▁eth 3107
▁दण्ड 3107
▁पूजा 3107
▁bas 3106
▁reduce 3104
▁veget 3104
▁Kamal 3103
▁directed 3103
▁अर्थात् 3103
.4 3102
ference 3102
लियम 3102
▁tea 3102
लक 3101
▁dram 3101
▁section 3101
▁Pandey 3100
▁pick 3099
▁Saptari 3097
▁clothes 3097
▁reasons 3097
▁ann 3096
▁moved 3096
ंगो 3094
▁Jer 3092
▁hot 3092
▁shock 3092
usal 3091
▁li 3091
▁prim 3091
ल्डर 3090
▁hop 3090
▁lif 3090
नीको 3089
▁London 3089
▁annual 3088
▁complete 3088
omp 3087
▁Fr 3087
▁benefit 3087
▁nearly 3087
ends 3086
▁representatives 3086
▁sons 3086
▁Ba 3085
▁card 3085
प्प 3084
स्ति 3084
▁अद्यावधिक 3084
........ 3083
ewhere 3083
रुवा 3083
हको 3083
▁trou 3083
▁trust 3083
▁गल्ती 3083
▁गहिरो 3082
लियो 3081
डले 3080
शले 3079
▁औंला 3079
दले 3078
▁eng 3078
▁remember 3078
▁मैदान 3078
▁agricultural 3077
▁leaving 3077
▁pe 3077
ares 3076
्यानल 3076
▁Camp 3076
▁आकाश 3076
▁Chand 3074
▁protection 3074
▁rul 3073
oid 3072
मर 3072
▁gar 3072
▁त्यसरी 3072
▁सर्वेक्षण 3071
▁Add 3070
▁traditional 3070
▁जीवित 3070
▁रचना 3070
▁estimated 3068
▁तिनका 3068
rick 3067
▁charges 3067
▁status 3067
▁eval 3066
▁बढेर 3066
▁fra 3065
▁जसलाई 3065
▁appointed 3064
▁repl 3063
▁Deputy 3061
▁Mal 3061
▁lakh 3061
▁teachers 3061
▁बंग 3061
बाटै 3060
▁aud 3060
▁wide 3060
▁हेर्दा 3060
▁importance 3059
▁लड 3059
▁Kir 3058
▁events 3058
▁possibility 3058
▁चट्टान 3058
▁समग्र 3058
▁हाउ 3058
▁Russia 3057
▁पूर्वा 3057
न्दी 3056
▁छुट्टै 3056
▁प्रतिलिपि 3054
▁लिएका 3054
set 3053
वारी 3053
▁निर 3053
▁क्यान्सर 3051
▁टेलिभिजन 3050
लगायतका 3048
▁speech 3048
▁continued 3047
AS 3045
andal 3045
वक्ता 3045
▁_ 3045
▁damage 3045
▁नाउँ 3045
▁Tour 3044
▁eld 3044
▁init 3044
▁मोबाइल 3044
कार्य 3042
▁destroyed 3042
▁revolution 3042
कोलागि 3041
▁नरा 3041
▁Rules 3040
▁eating 3040
me 3039
िएका 3039
▁April 3039
▁ट्रया 3039
gg 3038
rel 3038
ula 3037
iture 3036
▁मानक 3036
▁वैदेशिक 3036
▁कहिलेकाही 3035
so 3034
▁demonst 3033
▁victory 3033
▁चन्द्र 3033
ग्री 3032
▁UK 3032
▁गयो 3032
▁विद्यालयमा 3031
power 3030
▁personnel 3030
▁देखाउने 3030
▁बिता 3030
रीका 3029
▁गे 3029
▁हुनुपर्दछ 3029
ga 3028
▁sat 3028
anesh 3027
एच 3027
बारेमा 3027
rative 3026
जिक 3026
नीले 3026
▁Britain 3026
▁feet 3026
▁उद्य 3026
▁challeng 3025
▁disp 3025
▁affect 3024
▁takes 3024
▁write 3023
▁बू 3023
▁Gr 3022
▁concer 3022
▁door 3022
▁rap 3022
▁डर 3022
▁सम्पादन 3022
▁authorities 3021
▁average 3021
▁लगाइएको 3021
ोध 3020
▁bird 3019
▁carried 3019
▁इस्राए 3019
▁खाता 3019
▁मले 3019
ued 3018
▁mer 3018
▁moment 3017
▁मर्मत 3016
▁caused 3015
ेश्व 3014
▁अपा 3014
▁तै 3014
सक्ने 3013
▁जातीय 3013
▁सुना 3013
▁फूल 3011
तक 3010
माण 3010
श्यक 3010
ारे 3010
▁Despite 3010
ampions 3009
atever 3009
rule 3009
▁dom 3009
▁believed 3008
▁followed 3008
▁केवल 3008
▁जोडा 3008
▁Look 3007
▁औद्योगिक 3007
▁नस 3007
▁draw 3006
▁punish 3006
▁मुलुकको 3006
▁सामुदायिक 3006
party 3005
▁Rep 3004
▁receive 3003
▁लगायत 3003
▁वासिङ्ट 3003
ध्या 3002
▁opening 3002
▁Democratic 3001
▁comment 2999
▁spirit 2999
▁सब 2999
▁४५ 2999
ika 2998
ाउनुहोस् 2998
▁bow 2998
▁वी 2998
▁हुन्थ्यो 2998
सनमा 2997
▁proced 2997
▁wis 2997
▁क्रो 2997
▁दिल्ली 2997
rupt 2995
▁Comp 2995
▁जहाज 2995
▁उत्पादक 2994
▁signed 2993
▁माघ 2993
.3 2992
bassador 2992
pper 2992
▁ended 2992
▁चाहन्छन् 2992
▁पदाधिकारी 2992
दमा 2991
▁consid 2991
▁term 2991
rence 2990
स्थि 2990
▁Last 2990
▁मण्ड 2990
reat 2989
▁looked 2989
▁बीचमा 2989
▁मुख्यतया 2989
aru 2988
▁Trump 2988
▁बुझ्न 2987
ention 2986
▁mobile 2986
▁remove 2986
ran 2985
▁28 2985
▁Work 2984
▁spoke 2984
▁तिनीहरूको 2984
▁हानि 2984
▁credit 2983
▁आह्वान 2983
▁श्रेष्ठले 2983
▁hom 2982
▁विजेता 2982
दल 2981
▁सदा 2981
▁पठाइ 2980
comm 2979
▁behavior 2979
▁constitutional 2979
▁धारा 2979
▁समन्वय 2979
्ले 2978
▁विरा 2978
मिरे 2977
▁कविता 2977
▁Art 2976
▁गर्व 2976
▁गणना 2975
वेयर 2974
ping 2973
▁youth 2973
▁सिने 2973
ंका 2972
▁वर्षदेखि 2972
▁Commun 2971
▁hero 2971
▁कम्प्युटर 2971
▁डलरको 2971
▁दलित 2971
▁बौद्ध 2970
▁wel 2969
धारित 2968
▁एयर 2968
▁26 2967
▁मुद्दामा 2967
स्थान 2966
▁चीनको 2966
▁श्रीमती 2966
राव 2965
लिस 2964
ulation 2963
nel 2962
कारि 2962
सकेपछि 2962
“ 2961
▁emb 2961
▁France 2959
▁भोज 2959
्यारे 2958
▁NE 2958
गन 2956
▁Trib 2956
▁studying 2954
▁television 2954
▁कम्युनिष्ट 2954
istics 2952
▁जाँदा 2952
▁मार्फत 2952
aug 2951
▁techn 2951
▁levels 2950
▁parliamentary 2949
▁agency 2948
▁उल्ल 2947
▁तपाई 2947
▁Its 2946
▁दाय 2946
▁fru 2944
साय 2943
▁शताब्दी 2943
ouse 2942
▁administ 2942
▁गरिब 2942
▁प्रशंसा 2942
▁रंग 2942
fer 2941
pen 2941
▁Min 2941
ीको 2940
ारु 2939
akes 2938
▁Hindu 2938
▁अधिक 2938
▁१९७ 2938
wide 2937
सिक 2937
▁sacri 2937
▁इन्जिनि 2935
▁rev 2934
gar 2932
▁establishment 2932
▁Red 2931
▁acqu 2931
▁beautiful 2931
▁unity 2931
mar 2929
▁beh 2929
▁महासचिव 2929
▁टुक्रा 2928
▁संघले 2928
▁अभिने 2927
formation 2926
wards 2926
डियो 2926
▁तस्वीर 2924
▁लिए 2924
▁roads 2923
▁छेउ 2923
▁प्रदूषण 2923
▁operate 2922
▁सुनि 2922
▁पराज 2921
ayat 2920
▁famous 2919
▁पर्दैन 2919
▁समयसम्म 2919
सिङ 2918
▁इन्कर्पोरेटि 2918
▁व्यवस्थाप 2917
इस 2916
▁छौ 2916
▁संविधानसभा 2916
▁struggle 2915
▁separ 2913
▁पौडेल 2913
▁राती 2913
▁helped 2911
▁छाड 2911
▁बेलायत 2911
▁अगस्ट 2910
▁fine 2909
▁तत्कालीन 2909
▁राजदूत 2909
mon 2907
्रिय 2907
▁विकासको 2907
ँस 2906
▁वर्षे 2905
▁शत्रु 2905
सक् 2904
▁ओलीले 2904
▁amendment 2903
▁reports 2903
law 2902
▁gun 2901
▁Chap 2900
▁powers 2900
▁तुल्या 2899
uf 2898
▁उज 2898
▁Sal 2896
▁jail 2896
▁गावि 2895
▁जीवनमा 2895
▁साउ 2895
▁सुश्री 2895
भाविक 2893
केर 2892
▁© 2891
▁broken 2890
▁जलवायु 2890
▁स्वतन्त्रता 2890
▁होस्ट 2890
▁Asian 2889
▁सर्वसाधारण 2889
▁सोधे 2889
▁उपन्यास 2888
ience 2887
▁अने 2887
▁तुरुन्तै 2887
▁हिस् 2887
ounds 2886
▁die 2886
▁KP 2885
भो 2884
▁Ms 2884
▁sex 2883
▁दोष 2883
▁Three 2882
▁cash 2882
▁विश्लेष 2882
▁हरियो 2882
▁Sir 2881
▁religion 2881
▁भएकोले 2881
ugg 2880
लम्बन 2880
▁san 2880
sp 2879
▁Ser 2879
▁गतिविधि 2879
▁industries 2878
▁documents 2877
▁बनाइएको 2877
▁मानिसको 2877
▁राख्नु 2877
▁touch 2876
▁27 2875
▁dialog 2875
▁discussed 2874
▁selling 2874
▁सान 2874
ilit 2873
▁poll 2873
▁जानु 2873
▁मार्च 2873
du 2872
▁स्ना 2872
▁fulfill 2871
▁३२ 2871
▁alcohol 2870
▁बसेको 2870
▁यिन 2870
▁गाविस 2869
▁निकायले 2869
▁सावधानी 2869
other 2867
▁90 2867
▁चलाउन 2867
▁knew 2866
porate 2865
▁Fund 2865
▁direction 2865
▁journey 2865
aled 2864
▁communities 2864
▁response 2864
▁सक्छौं 2863
abin 2862
▁turned 2862
▁ड्राइभर 2862
▁०५ 2862
लीय 2861
▁इज 2861
▁नेपाललाई 2861
▁लन्ड 2861
▁सत्त 2861
▁संस्थाको 2860
▁स्कट 2860
गमन 2859
लादेश 2858
▁England 2858
▁blockade 2858
▁गठबन्ध 2858
orthern 2857
च्चा 2857
▁educational 2857
▁sometimes 2857
▁यसकारण 2857
▁देख्न 2856
haps 2854
ird 2854
▁Mahe 2854
▁पेट्रो 2854
kh 2853
▁गाउँमा 2853
▁मानिसले 2853
▁खि 2852
▁नाकाबन्दी 2852
▁hung 2849
icians 2847
क्षम 2847
▁लागेका 2847
ault 2846
ेष 2846
▁काँ 2846
▁तोकिएको 2846
▁धन्यवाद 2844
चाइ 2843
रीय 2843
हिने 2843
▁steps 2843
▁बोलपत्र 2843
▁सदरमुकाम 2843
.7 2841
ङ्गो 2841
▁declared 2841
▁नारायण 2841
▁बैंकले 2841
▁उत्तरी 2840
तले 2839
वाला 2839
▁shoot 2838
▁निम्न 2838
wn 2837
▁Khadka 2837
▁candid 2837
▁drinking 2837
▁च्या 2837
▁तामा 2837
▁ministers 2836
makers 2835
बन्ध 2835
▁विज्ञप् 2835
यान 2834
▁Gautam 2834
▁फ् 2834
oura 2833
पयोग 2833
▁computer 2833
▁गाउ 2833
सद् 2832
▁जिम्मेवार 2831
▁पूर्वी 2831
ister 2829
▁markets 2829
▁स्वीकृति 2829
▁औपचारिक 2828
▁जाग 2828
▁नजिकै 2828
▁नोभेम्बर 2828
▁प्रकारका 2828
▁illegal 2827
▁पहाड 2827
क्कै 2826
▁Ham 2826
▁महेन्द्र 2826
खित 2825
▁आय 2825
▁60 2824
▁mobil 2824
▁बज 2824
▁Democ 2823
▁books 2823
50 2822
aced 2821
▁career 2821
▁पाकिस्तान 2821
▁publ 2820
▁आत 2819
▁फागुन 2819
ival 2818
yl 2818
▁blind 2818
▁prem 2818
▁इस्राएलका 2818
▁नक्क 2818
▁Ben 2817
▁मंगलबार 2817
▁शक्तिशाली 2817
दु 2816
▁referred 2816
▁ways 2816
oke 2815
▁प्रतियोगिता 2815
काश 2814
▁respond 2814
▁survey 2814
▁समाजमा 2814
▁लक्षित 2813
ights 2812
धिक 2812
बै 2812
▁ign 2812
▁कम् 2812
▁जीवनको 2812
ager 2811
गञ्ज 2811
▁७० 2811
▁कुराको 2810
▁चाहिँ 2810
hedule 2809
▁south 2809
▁खाद्यान्न 2809
▁मासु 2809
▁सन्दर्भ 2809
▁danger 2808
▁सञ्चालित 2808
र्फत 2807
▁Lama 2807
▁journalists 2807
sy 2806
म्रो 2806
▁proceed 2806
वाट 2805
▁exist 2805
▁sides 2805
bit 2804
▁freedom 2803
▁initi 2803
▁ट्रम्प 2802
▁vict 2801
▁संगीत 2801
▁polit 2800
▁settlement 2800
▁claims 2799
▁नब 2799
▁निःशुल्क 2799
▁Turk 2797
nic 2796
uri 2796
र्ति 2796
▁surv 2795
▁परिभाषा 2795
▁operated 2794
▁चिन्तित 2794
▁पिट 2794
▁बढ्न 2794
CE 2793
hab 2793
त्सव 2793
सिना 2793
▁Organ 2793
▁animals 2793
▁प्रतिस्थापन 2793
▁रणनीति 2793
छि 2792
▁Egypt 2792
▁Mich 2791
off 2790
र्नु 2790
पत्ति 2789
▁दुइ 2789
▁राहत 2789
▁traffic 2788
विहीन 2787
▁opin 2787
▁wind 2787
▁शिखर 2787
itness 2786
▁offices 2786
▁खना 2785
▁जरिवा 2785
alth 2784
▁दशकमा 2784
कियो 2783
▁Also 2783
▁बिदा 2783
cess 2782
▁express 2782
▁नियमावली 2782
itude 2781
राष्ट्र 2781
▁Security 2781
▁foot 2781
ties 2780
ण्ट 2780
▁experts 2780
▁उद् 2780
▁स्तरमा 2780
▁ability 2779
▁अनिवार्य 2779
▁मध 2779
▁सम्पाद 2779
▁सहर 2779
▁correct 2778
▁बाबजुद 2778
iff 2776
▁fle 2776
▁star 2776
▁नगरे 2776
▁भाषण 2776
estern 2775
▁मृत 2775
rary 2774
▁double 2774
▁east 2774
▁Net 2773
▁meas 2773
रिङ 2772
▁bab 2772
▁fem 2772
▁स्ट्रि 2772
going 2771
▁committed 2771
ols 2770
▁ep 2770
▁साँझ 2770
▁Child 2769
▁existing 2769
▁ज्ञा 2769
▁Som 2768
▁संगठन 2768
amer 2767
▁teams 2767
astic 2766
imp 2766
phone 2766
▁अभिन 2766
▁मस्यौदा 2766
▁judge 2765
▁त्रिभुवन 2765
लेट 2764
▁31 2764
▁Mark 2764
▁films 2764
▁८० 2764
रूप 2763
▁पछ्या 2763
▁प्रचलित 2763
istan 2762
▁soldiers 2762
▁tend 2762
ैँ 2761
▁investors 2761
▁mean 2761
▁soft 2761
▁आधिकारिक 2761
▁प् 2761
ann 2760
पश्चिम 2760
▁प्रशस्त 2760
lied 2759
▁Sept 2759
▁अग् 2759
▁केपी 2758
▁देवी 2758
पथ 2757
▁Both 2757
▁Mahar 2757
▁profit 2757
▁चार्ज 2757
▁देखाउन 2757
▁संघका 2757
▁Cur 2756
▁arrest 2756
▁doctor 2756
▁sea 2756
▁आजको 2756
▁साझेदार 2756
▁arrangements 2755
▁growing 2755
▁अष्ट्रे 2755
ंदा 2754
्यौं 2754
▁ge 2754
▁विनाश 2754
part 2753
eria 2752
gin 2752
▁opportunities 2752
▁brand 2751
▁टाँ 2750
▁मन्दि 2750
▁names 2749
▁दिशा 2749
▁हेरि 2749
किने 2748
ालको 2748
▁पात्र 2747
▁रूख 2747
arat 2746
पक्षीय 2746
्म 2746
▁exchange 2745
▁खेलकु 2745
▁विच 2745
ris 2744
▁प्रारम्भ 2744
.6 2743
ociated 2743
लभ 2743
▁हस्तक्षेप 2743
न्तु 2742
▁Administration 2742
▁कक्ष 2742
▁केन्द्रमा 2742
▁चाहने 2741
▁सेप्टे 2741
इन्छ 2740
▁Vill 2740
▁आधारभूत 2738
▁Chitwan 2737
▁तत्व 2737
▁yourself 2735
▁अपरि 2735
कलाई 2734
▁goals 2734
▁असह 2734
▁लगाए 2734
डर 2733
▁presence 2732
▁निको 2732
▁vers 2731
▁बसोबास 2731
लियन 2730
▁constructed 2730
▁पश्चिमी 2730
▁साझा 2730
र्जा 2729
▁Lim 2729
▁Temple 2729
▁खेल्ने 2729
▁ग्री 2729
▁बताइएको 2729
▁सै 2729
standing 2728
▁Arab 2728
▁challenge 2728
▁harm 2727
▁occ 2727
▁गाई 2727
▁Australia 2726
▁spend 2726
▁दान 2726
▁सहायता 2726
akal 2725
▁multi 2725
▁sense 2725
▁continu 2724
▁dro 2724
▁focus 2724
ulated 2723
▁Dar 2723
▁कानु 2723
▁जलविद्यु 2723
▁टर्की 2723
itan 2722
▁orig 2722
▁views 2722
▁अनुमोदन 2722
▁खोज्ने 2722
▁साता 2722
रिक 2721
▁अच 2721
ivity 2720
▁beg 2720
▁relief 2720
▁sitting 2720
▁cell 2719
▁powerful 2719
▁चिसो 2719
▁सहकार्य 2719
र्जन 2718
▁married 2718
▁stage 2718
▁सदन 2718
▁Met 2717
▁देखाउँछ 2717
ented 2716
क्ता 2716
र्ती 2716
▁शरण 2716
▁Management 2715
▁पुगे 2715
▁सामेल 2715
elf 2713
ole 2713
▁Bhak 2713
▁pra 2713
▁काठमाडौंमा 2713
▁discussions 2712
▁किसिमको 2712
▁क्ला 2712
vern 2711
▁arg 2711
▁commitment 2711
▁corn 2711
▁अरब 2711
▁रोब 2711
\ 2710
▁Che 2710
▁बाहेक 2710
▁कपडा 2709
▁कमि 2709
श्य 2708
सम्मको 2708
▁latest 2708
▁उन्न 2707
हीन 2706
▁Ang 2706
▁महत् 2706
▁नं 2705
wood 2704
रेन्ट 2704
▁PRNew 2704
▁flo 2704
▁planning 2704
▁अस्ति 2704
न्ति 2703
▁@ 2703
▁डरा 2703
▁Russ 2702
▁emphas 2702
▁understood 2701
esty 2700
▁tru 2700
▁achie 2699
▁desire 2699
▁nar 2699
▁हज 2699
▁छै 2698
▁पोखरा 2698
▁हृ 2698
डिया 2697
▁Geor 2697
▁quickly 2697
▁ढुङ्गा 2697
▁यसबाट 2697
▁राजाको 2697
▁draft 2696
▁monarchy 2695
▁reduced 2695
ware 2693
थित 2693
kash 2692
सव 2692
▁पढ्न 2692
▁1979 2691
▁locals 2691
▁redu 2691
▁परिभाषित 2691
मण्ड 2690
▁fuel 2690
▁Acharya 2689
▁mountains 2689
▁ग्रे 2689
inary 2688
time 2687
▁सत्र 2687
ढे 2686
सला 2686
▁Shak 2686
▁बलपूर्वक 2686
▁यन्त्र 2686
▁holding 2685
▁अप्रि 2685
▁Janak 2684
▁प्रतिबद्धता 2683
राब 2682
▁सहित 2682
ancy 2681
lines 2681
▁Whether 2681
▁चाहन्छु 2681
▁पोखरे 2681
▁fol 2680
▁पारे 2680
▁पर्न 2679
▁मधेसी 2679
▁युरो 2679
▁सबैको 2679
▁इन्धन 2678
▁कडा 2678
ague 2677
uation 2677
▁resc 2677
iation 2676
▁participate 2676
▁truth 2676
▁गरिदि 2676
-3 2675
reme 2675
▁डेटा 2675
pir 2674
▁crime 2674
▁चेत 2674
्यारो 2672
▁article 2672
▁बनेका 2672
▁यथार्थ 2672
▁लगाएको 2672
▁Social 2671
▁sports 2671
▁समर्थ 2671
erce 2668
▁cancer 2668
▁milk 2668
▁defin 2667
▁हल 2667
▁हासिल 2667
rial 2666
▁आर्जन 2666
▁दर् 2666
▁थापाले 2665
▁cat 2664
▁हैन 2664
▁approval 2662
▁normal 2662
emb 2661
▁offering 2661
▁डाक्टर 2661
igration 2660
▁Afghan 2660
cha 2659
नेको 2658
न्नु 2658
▁appears 2658
▁bul 2656
▁candidate 2656
▁function 2656
▁programme 2656
▁कुराका 2656
▁देहाय 2656
light 2653
▁Law 2653
▁पाइने 2653
▁bomb 2652
▁laugh 2652
▁notice 2652
▁सिट 2652
ब्रे 2651
hav 2650
यती 2650
▁Federal 2650
▁Justice 2650
▁probably 2649
▁खारेज 2649
▁बसेर 2649
▁माओवादीको 2649
▁एल् 2648
▁तु 2647
▁समेट 2647
come 2646
▁gather 2646
▁एकीकृत 2646
▁कुकुर 2646
चालित 2645
▁cult 2645
दद 2644
फर 2644
▁else 2644
▁थपि 2644
▁७५ 2644
तीय 2643
▁pati 2643
▁छान 2643
▁remained 2642
▁जस 2642
gy 2641
▁dance 2641
▁surround 2641
▁छिन् 2641
ola 2640
▁pil 2639
▁बेलामा 2639
ध्यापक 2638
▁Ob 2638
▁mach 2638
▁wood 2638
▁teaching 2637
▁Bangladesh 2636
▁conclud 2636
▁ड्राइ 2635
▁स्पर् 2635
चौ 2634
▁adopted 2634
rying 2633
▁scheduled 2633
endent 2632
नाम 2632
inton 2630
वेदनशील 2630
▁requ 2630
नीमा 2629
▁उहा 2629
▁Fore 2628
▁track 2627
▁राजी 2627
▁esc 2626
▁union 2626
▁उनीहरुले 2626
▁गोर 2625
porary 2624
▁Malays 2624
ING 2622
The 2622
▁effort 2622
▁stra 2622
थो 2621
▁bag 2621
▁occur 2621
▁unc 2621
▁कुमार 2620
कां 2619
▁विरुद्ध 2619
▁Internet 2618
mark 2617
▁reve 2617
▁specified 2617
▁म्य 2617
▁मौसम 2616
▁doctors 2615
▁pit 2615
▁आचार्य 2615
म्बु 2614
र्ता 2614
▁couple 2614
▁निर्वाच 2614
apa 2613
craft 2613
▁expend 2613
▁promotion 2613
शित 2612
▁cooper 2611
▁mor 2610
▁उद्ध 2610
▁कार्यमा 2610
▁थुप्रै 2610
▁लगाएर 2610
▁caste 2609
▁professional 2609
▁जन्मे 2609
▁household 2608
▁rates 2608
▁बगैंचा 2608
▁बाटोमा 2608
▁सक्दछ 2608
टु 2607
ansion 2606
▁अन्न 2606
▁प्रोत्साहित 2606
▁बैठकले 2606
▁Ash 2605
▁benefits 2605
▁सस्तो 2605
▁Royal 2604
▁equal 2604
▁lik 2604
▁दुर्व 2604
▁विद्यमान 2604
ER 2603
▁२००५ 2603
▁integr 2602
aps 2601
ोषण 2601
▁depos 2601
▁lay 2601
▁बरु 2601
▁रमाइलो 2601
युद्ध 2600
हरुका 2600
▁laun 2600
▁suffered 2600
▁teac 2600
▁नेतृत्वमा 2600
सीमा 2599
▁millions 2598
▁२०२ 2598
▁पाप 2597
▁types 2596
श्र 2595
▁items 2595
▁sky 2594
▁जै 2594
▁Institute 2593
▁भत् 2593
▁गुरुङ 2592
▁बुट 2592
ateral 2591
▁hearing 2591
▁youths 2591
▁कारा 2591
ML 2590
▁Gul 2589
▁measures 2589
▁हटाउन 2589
कोट 2588
▁Biratnagar 2588
▁संग्रह 2588
bassy 2587
ालिका 2587
▁pers 2587
▁receiving 2587
▁आफैँ 2587
धिकार 2586
▁विद्युत् 2586
▁believes 2585
▁biggest 2585
▁रूपान्तरण 2585
▁participation 2584
▁table 2584
▁Ste 2583
▁century 2583
▁phase 2583
▁size 2583
▁गाँ 2583
▁राम्र 2583
▁शिवि 2583
atra 2582
▁dark 2582
▁original 2582
▁पार्टीले 2582
aha 2581
▁certificate 2581
▁ठोस 2581
▁कल्पना 2580
▁सीप 2580
▁Dharan 2579
▁Tele 2579
UR 2578
▁climate 2578
▁अंक 2578
venth 2577
▁क्यालिफोर्निया 2577
▁जुनसुकै 2577
▁लिखित 2577
म्मा 2576
▁cooperation 2576
▁winning 2576
▁एकता 2576
▁strategy 2575
▁जला 2575
▁सन्दर्भमा 2575
ष्णु 2574
▁longer 2574
▁Count 2573
▁Forum 2573
▁Prem 2573
▁collected 2572
▁honor 2572
▁गौतम 2572
▁सेवाको 2572
▁Pun 2571
न्तव्य 2569
▁pan 2569
▁profession 2568
चो 2567
पुरमा 2567
सम्भव 2567
▁dismiss 2566
▁grant 2566
▁असन्तु 2565
ici 2564
▁feeling 2564
▁पाण्डे 2564
▁माटो 2564
थान 2563
▁Tamang 2563
▁partners 2563
▁resign 2563
▁screen 2563
▁दूध 2563
▁बुद्ध 2563
▁talking 2562
स्थितिमा 2561
▁officers 2561
▁किशोर 2561
▁निर्माता 2561
▁River 2560
▁basic 2560
▁भनिएको 2560
त्तिकै 2559
ores 2558
▁afraid 2558
▁जुट 2558
▁सिमा 2558
igence 2557
rid 2557
विष्ट 2557
▁attacks 2557
▁ey 2556
▁प्रतिष्ठान 2555
▁समीक्षा 2554
▁Affairs 2553
▁alleged 2553
▁west 2553
▁अभिव्यक्ति 2553
athe 2552
▁उपस्थिति 2552
▁econom 2551
▁निम् 2551
ports 2550
▁spending 2550
जनको 2549
▁Rastra 2549
▁ग्रि 2549
▁जनसङ्ख्या 2549
riend 2548
▁लक्ष 2548
▁सजि 2548
▁सञ्झ्याल 2547
asi 2546
tt 2546
▁argu 2546
▁Gold 2545
▁विगतमा 2545
▁विभागका 2545
oman 2544
रुपमा 2544
▁Second 2544
▁mechan 2544
▁गर्द 2544
▁नगद 2544
oul 2543
▁Instead 2543
▁reading 2543
▁तार 2543
▁ह्वा 2543
णि 2542
▁duty 2542
▁showing 2542
▁कामको 2542
▁साक्षी 2542
ears 2541
here 2541
▁अन्ततः 2541
▁ओग 2541
▁प्रसिद्ध 2541
▁मोदी 2541
▁राखेका 2541
pro 2540
▁चरित्र 2540
▁निजा 2540
▁मानिन्छ 2540
एनएन 2539
▁inn 2539
▁मध्ये 2538
cel 2537
fully 2537
वेद 2537
▁El 2537
▁प्रतिवेद 2537
▁coord 2535
▁भाव 2535
▁यसर्थ 2535
▁Def 2534
▁Represent 2534
▁TV 2534
▁compens 2534
▁studies 2534
ral 2533
रव 2533
▁बाली 2533
Q 2532
▁costs 2532
ष्ण 2531
uj 2530
▁विष 2530
eral 2529
▁थाल्यो 2529
▁रेल 2529
▁दुर्घटना 2528
.8 2527
ien 2527
▁hous 2527
▁मधेशी 2527
▁दै 2526
fic 2525
▁mort 2525
▁relating 2525
▁schol 2525
▁सफ्ट 2525
▁सहभागिता 2525
कालमा 2524
▁lands 2524
▁अख्तियार 2524
▁कुट 2524
▁नगरेको 2524
▁सृ 2524
ब्बर 2523
अनु 2522
▁driver 2522
▁बढ्ने 2522
▁आणविक 2521
▁French 2520
जनालाई 2519
▁bridge 2519
▁Dis 2518
▁Road 2518
▁नवीकरण 2518
▁बृद्धि 2518
▁पूजाहारी 2517
▁सकिँदैन 2517
कारण 2516
▁owners 2515
हादुर 2514
▁nuclear 2514
▁armed 2513
PN 2512
▁Deep 2512
▁मोर 2512
सिं 2511
▁stone 2511
▁Rights 2510
▁घाटा 2510
▁सल्लाहकार 2510
ikram 2509
▁science 2509
aka 2508
level 2508
▁sustain 2508
▁शारीरिक 2508
र्भ 2507
▁agriculture 2506
▁दक्ष 2506
▁फोहोर 2506
▁रङ्ग 2506
▁college 2505
▁गर्नुपर्नेछ 2505
▁२००८ 2505
▁Yes 2504
▁गरेनन् 2504
ks 2503
▁either 2503
▁ensure 2503
▁planned 2503
AT 2502
मिति 2502
ारायण 2502
▁session 2502
▁विकासमा 2502
▁सद 2501
विधि 2500
▁division 2500
▁eastern 2498
▁गर्यौं 2498
▁Front 2497
▁ओर् 2497
क्सि 2496
▁परिस्थिति 2496
▁फायर 2496
▁लगायतका 2496
co 2495
बमोजिम 2495
▁aim 2495
▁क्लिन्ट 2495
▁cast 2494
▁डरलाग्दो 2494
▁निर्भर 2494
amed 2493
oti 2493
▁Calif 2493
▁Muk 2493
▁बनाए 2493
itt 2492
ners 2492
atar 2491
▁Communist 2491
▁monitoring 2491
▁scene 2491
▁नसक् 2491
न्दू 2490
▁Techn 2490
▁consumers 2490
▁homes 2490
▁कार्यक्रमको 2490
▁कमी 2489
▁भ्या 2489
▁हुला 2489
aff 2488
▁ढाँच 2488
ademy 2487
▁audience 2487
▁मन्त्रिपरिषद् 2487
जक 2486
▁agenda 2486
▁deploy 2486
▁खेत 2486
▁loan 2485
▁till 2485
▁प्रश 2485
ES 2484
▁suffer 2484
▁अँ 2484
▁ढंग 2484
▁निश्चय 2484
▁परिचालन 2484
▁तिनले 2483
▁फ्लो 2483
▁बनाएका 2483
ङ्ख 2482
▁dog 2482
▁सधैं 2482
मारी 2481
▁Modi 2481
▁झण्डा 2481
▁बन्दुक 2481
▁सकेनन् 2481
▁स्मृति 2481
▁Prog 2479
▁प्रव 2479
iter 2478
usi 2478
चका 2478
▁Lam 2478
▁मरे 2478
▁स्कूल 2478
▁2005 2477
▁Pe 2477
▁rece 2477
▁धके 2476
▁प्रबन्धक 2475
▁विश्वा 2475
न्डा 2474
▁incre 2474
fall 2473
▁enem 2473
▁radio 2473
▁tomorrow 2473
▁Char 2472
▁accordance 2472
▁अंग्रे 2472
▁इराकमा 2472
▁गर्नेछन् 2472
▁मनोर 2472
& 2471
्नुहोस् 2471
▁speed 2471
▁नाफा 2471
▁लैजा 2471
▁inform 2470
▁programmes 2469
▁नेतृत्वको 2469
ique 2468
▁hour 2468
mitted 2467
▁concern 2467
▁restaur 2467
▁जय 2467
▁approved 2466
▁killing 2466
▁जिल्लाका 2466
rec 2465
ेशन 2465
▁tree 2465
▁प्रिमि 2465
▁समारो 2465
मार्ट 2464
▁customs 2464
▁मेडिकल 2464
वृत्ति 2463
▁determined 2463
▁पोर्ट 2463
ifying 2462
▁clearly 2462
▁require 2462
▁घरे 2462
▁धू 2462
काई 2461
श्वर 2461
ography 2460
▁equipment 2460
▁निवेदन 2460
ब्ब 2458
षे 2458
▁Cap 2458
▁आँक 2458
▁जनव 2458
▁बहस 2458
aun 2457
oci 2457
मिला 2457
▁prior 2457
▁अप् 2457
▁Tarai 2456
▁looks 2456
▁saf 2455
▁कोठामा 2455
▁इजाजतपत्र 2454
▁Journal 2453
▁plac 2453
न्डो 2452
▁Ltd 2452
▁arr 2452
▁cold 2452
▁चरा 2452
▁टिभी 2452
▁पति 2452
▁fees 2451
▁hyd 2451
▁यरू 2451
▁Like 2450
▁spok 2450
▁उद्धार 2450
▁सम्पदा 2450
oice 2449
शाला 2449
▁box 2449
▁brothers 2448
▁जनक 2448
▁फेसब 2448
▁दलका 2446
▁पौ 2446
▁माध्य 2446
स्तरीय 2445
▁regist 2445
▁महारा 2445
▁तरकारी 2443
▁बरा 2443
स्वरूप 2442
▁Musl 2442
▁मल 2442
adh 2441
▁filled 2441
▁stick 2441
ibility 2440
केत 2440
ग्रहण 2440
लीको 2440
▁Bel 2440
▁स्वदेश 2440
ailing 2439
ona 2439
asing 2438
▁Western 2438
▁डलरमा 2438
ancing 2437
orts 2437
▁Facebook 2437
▁lawy 2437
▁करी 2437
▁केटाकेटी 2437
▁दर्शन 2437
▁नियन्त्रणमा 2437
unt 2436
▁Former 2436
▁examination 2436
▁keeping 2436
▁विशाल 2436
fortable 2435
▁passengers 2435
▁लुट 2435
work 2434
▁पुर 2434
20 2433
▁मानवअधिकार 2433
▁विशिष्ट 2432
earch 2431
ript 2431
▁इराकी 2431
FA 2430
▁liber 2430
▁race 2430
▁tick 2430
imire 2429
▁# 2429
▁feat 2429
▁learn 2429
▁अत्यधिक 2429
▁ताप 2429
▁बाँध 2429
▁श्रेणी 2429
▁guarant 2428
▁लागे 2428
▁Which 2427
▁estim 2427
▁एक्स 2427
▁दिगो 2427
▁बला 2427
oned 2426
uge 2426
▁नोट 2426
-0 2425
lege 2425
▁म्याद 2425
ृत्ति 2424
▁decisions 2424
▁परिवारका 2424
▁महिनाको 2424
पात 2423
▁autom 2423
▁सार 2423
▁poss 2421
▁शरी 2418
awal 2417
▁गुण 2414
▁ब्राउ 2414
▁Nar 2413
▁द्रष्ट 2413
ाउँछ 2410
▁हेर 2410
uch 2409
▁परिवर्त 2408
ouncil 2407
▁तय 2407
पूर्ति 2405
▁window 2403
नाव 2393
वाह 2392
▁mess 2392
▁includ 2387
▁Sec 2385
▁+ 2383
ठन 2382
ensive 2381
hern 2379
तान्त्रिक 2377
▁drink 2376
देशिक 2375
ause 2374
reen 2367
ख् 2366
मित 2363
स्तै 2360
ricult 2357
airs 2356
eb 2356
▁मुद्र 2356
औ 2354
▁mater 2354
▁eff 2343
▁net 2342
▁आफ् 2342
ld 2340
टक 2337
▁ful 2331
▁sy 2329
ems 2326
मति 2324
यता 2322
▁eas 2319
▁immedi 2319
▁197 2318
▁becom 2316
▁विद्यु 2311
▁व्यव 2309
iron 2308
▁निर्वा 2302
▁mil 2300
▁ज्ञ 2300
iel 2299
yp 2299
देख 2299
▁अर्था 2294
▁उपलब् 2293
▁वायु 2291
▁Sat 2290
stru 2284
राष्ट्रिय 2282
cri 2275
टै 2275
▁विमानस्थ 2275
utes 2269
▁सुर 2267
धु 2266
तै 2265
सचिव 2265
ission 2264
▁pros 2257
▁गुणस्त 2257
ork 2253
न्तरण 2249
▁chang 2248
▁pop 2244
चित्र 2237
▁एव 2236
▁दक्षि 2234
▁applic 2233
▁prof 2222
डान 2221
▁समु 2221
भव 2215
ग्रह 2214
▁stud 2208
तिकै 2204
▁विश 2203
sw 2202
▁विज 2196
▁Tam 2192
side 2190
र्का 2190
▁begin 2186
▁citiz 2186
any 2180
▁cond 2180
▁सहा 2180
▁रणनी 2177
ैमा 2174
itte 2172
▁भौ 2172
▁जंग 2168
सद 2166
कारात्मक 2165
हाँ 2165
vernment 2164
lement 2156
oard 2152
कम 2152
▁बढ् 2150
▁लै 2150
▁som 2143
▁beaut 2139
णाली 2136
ivil 2134
▁क्षम 2134
por 2133
▁arrange 2133
▁भार 2129
ably 2127
▁dr 2124
▁शर् 2123
▁adop 2122
▁dise 2122
▁अस् 2113
▁सश 2113
▁मौस 2112
तिय 2107
▁किलो 2107
हरण 2103
▁pun 2102
▁प्रतिबद्ध 2098
▁अभ 2093
▁स्म 2091
▁वास्त 2088
वेदन 2087
▁फ्रा 2087
ट्टा 2086
vert 2084
though 2079
▁gir 2079
aching 2078
चाल 2078
हारी 2077
cribed 2074
adem 2072
▁strugg 2071
▁इन्टर 2070
ख्य 2069
▁योग 2067
▁पहा 2066
rik 2064
वमा 2062
uel 2061
न्टर 2061
▁resident 2060
▁हिमा 2057
orrow 2056
▁नवी 2055
ortun 2054
hest 2051
कला 2050
▁संग 2048
शाली 2047
] 2046
▁पौड 2044
▁फर 2044
▁परिव 2039
urance 2037
▁रोजग 2037
▁प्रबन्ध 2033
म्पि 2030
arth 2022
▁बग 2013
xt 2011
apt 2010
▁कठ 2009
▁Gen 2004
▁Kum 2002
ober 1994
स्या 1994
राष्ट 1993
▁तत् 1991
पश्च 1987
▁mov 1981
तीमा 1979
isf 1978
oney 1977
श्चित 1973
[ 1966
मार्ग 1965
ृह 1965
▁फ्या 1961
▁अनुभ 1958
ओवादी 1957
▁pur 1955
* 1952
▁Kam 1952
▁Cent 1942
▁विधे 1940
osition 1937
elt 1935
हल 1935
crib 1926
uss 1926
पक्षी 1922
rou 1919
▁cour 1919
▁सम्झौ 1917
▁expert 1916
काली 1910
▁pot 1906
▁rele 1902
vision 1898
▁sus 1894
चालन 1890
▁settle 1887
▁Kore 1886
ason 1881
une 1881
urk 1881
▁गर्नुपर् 1881
ways 1879
▁employ 1878
▁priv 1877
▁cred 1874
unicip 1873
ेख 1873
▁प्रजा 1870
▁बिक 1865
ceed 1863
▁उत्त 1860
▁vari 1858
order 1855
▁अमेरि 1855
▁mus 1853
▁पुरस् 1852
ोका 1847
hic 1846
ध्यक्ष 1845
▁Bud 1844
▁compl 1844
erg 1839
▁whe 1838
▁विभा 1835
म्रा 1831
▁भ्रम 1830
conom 1825
स्थ्य 1823
ials 1822
न्तर 1818
▁करि 1817
▁प्रतिष्ठ 1816
ublic 1814
▁गठ 1810
▁Acc 1806
सल 1801
▁strik 1801
ित्व 1800
र्श 1799
डित 1798
ka 1795
uty 1791
▁विमान 1791
▁Americ 1789
▁कर्म 1786
▁संश 1786
ecess 1783
▁fulf 1783
▁mag 1783
nes 1782
arma 1780
▁सम्भाव 1776
साद 1774
▁determin 1774
कर् 1773
▁महि 1771
arty 1766
▁अपरा 1765
ffic 1763
▁प्रच 1757
क्षी 1756
लाइन 1756
oll 1755
ricket 1750
राई 1748
▁बह 1748
▁detail 1747
▁तथ 1737
▁कृष 1736
▁रमा 1734
que 1730
IN 1726
झा 1726
hara 1723
▁सञ्च 1719
ession 1718
क्षेप 1718
न्दो 1717
▁profess 1716
भू 1715
omb 1714
▁charact 1714
yle 1712
▁भट्ट 1712
▁राष्ट 1712
head 1707
▁अस्पता 1706
▁destroy 1704
▁Gur 1700
▁corru 1699
embly 1696
चान 1696
▁milit 1695
raft 1694
ustom 1694
▁प्रोत्सा 1693
resident 1691
ृत्य 1687
ociation 1684
ociety 1684
venue 1683
stem 1680
▁अवि 1677
▁Just 1673
▁emp 1673
▁suff 1672
ensus 1671
iday 1671
ached 1665
▁Offic 1665
▁fam 1664
ped 1661
▁उपत्य 1659
▁lic 1657
ource 1653
▁Bah 1649
दुर 1648
▁recomm 1647
गायत 1646
▁दुर्घट 1646
▁धेर 1646
arter 1645
abl 1644
▁श्र 1644
stitute 1643
▁गल् 1640
▁चल 1635
हू 1633
्टा 1633
poration 1627
बन्दी 1621
िकल 1619
▁प्रस्तु 1619
iving 1609
▁गर्नुहु 1607
rough 1597
हिले 1595
बम 1594
न्द्व 1592
नियम 1590
RN 1588
aving 1587
▁जीव 1585
itiz 1576
ख्या 1576
ोधन 1571
▁Cal 1569
▁.. 1563
▁घण 1562
क्षर 1554
▁क्रिया 1550
लिरहेको 1549
ल्लो 1547
iddle 1541
▁Oct 1541
सब 1538
▁fir 1533
rep 1530
racy 1527
व्यापी 1524
िकि 1524
▁commit 1521
▁सार्व 1520
medi 1517
arya 1515
▁अद 1509
▁सड 1509
पाद 1504
ousand 1499
▁bet 1498
Z 1497
cil 1496
▁ens 1494
िति 1493
्युट 1493
lected 1490
▁विज्ञ 1490
▁सामा 1489
aim 1483
▁कोइ 1483
▁env 1480
▁langu 1480
▁देउ 1478
सुकै 1477
हक 1473
तियार 1470
▁अष्ट 1469
▁Pak 1467
▁परी 1467
▁यथा 1467
▁tit 1465
urned 1462
▁प्रशं 1460
ross 1459
ude 1459
ancial 1458
▁सजा 1457
▁सां 1454
ricity 1451
▁नाका 1451
icle 1449
▁inte 1449
न्व 1446
▁Loc 1445
▁construct 1444
▁छे 1443
▁औष 1442
bal 1440
▁मान्य 1440
▁phys 1438
▁श्रृ 1434
ेक्षा 1433
स्तु 1432
▁अक्टो 1431
ँजी 1429
round 1427
ष्य 1425
▁cle 1425
▁propos 1425
▁अक् 1424
रुद्ध 1422
टेड 1420
▁est 1418
▁fest 1418
▁काठमा 1418
▁bene 1414
ratic 1408
लाग् 1404
▁Pand 1404
▁महसु 1404
enior 1399
गामी 1399
arch 1395
▁भ्रष्ट 1390
lobal 1387
change 1386
not 1385
▁सन्द 1385
▁सामु 1385
ront 1384
होस् 1380
काम 1379
▁पश्चि 1376
▁साँच्च 1375
▁mention 1374
gun 1371
▁वित्त 1367
सङ् 1366
पन्न 1362
कर्ष 1360
▁daugh 1359
lud 1357
▁lit 1357
वाई 1350
स्थापना 1350
▁Serv 1345
adio 1344
▁hy 1344
चार्य 1341
▁unt 1341
▁प्रत्य 1340
्वी 1337
▁cou 1336
▁घोष 1332
▁tar 1330
ंख 1329
▁तस् 1329
स्तो 1328
▁पर्य 1328
रामी 1327
augh 1325
▁Fed 1325
▁उदा 1325
▁respons 1324
etimes 1322
पर्क 1322
छाडि 1321
▁गै 1321
▁Direct 1316
▁195 1313
ीर 1312
▁पूर् 1312
rug 1309
▁indep 1308
▁Bhatt 1307
सेवा 1301
▁न्या 1299
ept 1296
vey 1296
सुक 1293
▁Val 1290
stit 1289
▁quick 1285
दूत 1284
▁संक 1283
▁हस्त 1281
▁vide 1280
selves 1278
omm 1270
▁कम्युनि 1269
▁नियन्त्र 1267
uter 1266
illion 1265
ज्ञानिक 1263
akers 1259
▁ठो 1259
idge 1255
दम 1255
ल्क 1253
द्धि 1251
▁Ge 1250
▁बैठ 1247
irst 1246
फ् 1244
पाई 1238
▁साँच 1236
▁फ्याँ 1234
▁वासिङ 1233
निधि 1232
` 1229
▁Mod 1225
▁तुरुन्त 1224
स्थिति 1223
icip 1222
पना 1220
▁उम 1217
▁टर् 1217
é 1216
rish 1206
has 1205
aily 1202
▁educ 1202
road 1201
▁जहा 1200
जसो 1194
▁Ro 1193
▁amend 1192
▁infl 1188
▁बारे 1186
▁चै 1184
ironment 1181
कुर 1181
▁typ 1180
योजना 1178
adesh 1176
▁हड 1174
iew 1173
ecessary 1172
लिपि 1171
ources 1170
▁धार 1170
▁सहभागि 1170
कृष्ट 1168
्राइ 1168
rab 1166
▁प्राय 1165
▁सच 1165
▁सर्वो 1164
▁fav 1162
निर्माण 1160
▁lar 1160
▁सिफारि 1155
▁बाब 1154
▁op 1153
▁कान 1152
घट 1150
पचारिक 1149
▁कम्प 1146
DC 1144
ilt 1143
000 1142
हत 1140
सान 1139
iers 1138
▁मान्छ 1137
▁व्याव 1135
ipl 1133
▁issu 1132
empt 1130
undred 1130
▁०० 1130
▁monitor 1129
क्षिक 1126
encies 1122
▁Aug 1122
▁विद्या 1122
ब्द 1116
▁Eng 1115
eric 1113
▁आवा 1110
▁Del 1109
▁नाग 1109
साधारण 1107
▁Ach 1107
नुपर्दछ 1106
्रिया 1104
▁Austral 1100
view 1098
▁Bang 1098
▁इस्राएल 1087
▁किश 1087
चारी 1086
▁कट 1085
ध्याप 1081
▁wr 1081
त्सा 1078
संघ 1072
▁क्रियाकला 1072
▁Form 1070
isk 1068
cc 1065
र्द्ध 1064
▁Ju 1064
▁अस्प 1064
▁purp 1059
stitu 1055
▁उपन्या 1054
urity 1053
भिजन 1053
न्दि 1049
▁अभिभाव 1047
▁निय 1046
▁साव 1046
▁वर्ण 1045
ताल 1044
▁शै 1042
▁passeng 1040
▁मन्त्र 1038
दानी 1036
ades 1035
fort 1033
▁सोम 1032
irect 1031
» 1031
book 1028
▁mur 1027
▁कानू 1026
▁धितो 1018
chan 1015
rist 1012
जत 1009
भिन्न 1008
▁विना 1008
टिल 1003
न्त्री 1000
▁बोल 999
भूत 998
▁एउ 998
▁मंग 997
upees 996
▁उपल 996
▁नोभे 996
▁मुल 995
▁Sund 994
▁गहि 994
▁याद 994
▁डब् 993
ternet 989
न्सर 988
▁चिकित् 986
श्री 984
▁weap 984
▁spokes 982
▁पाण्ड 980
sel 975
टिश 973
धे 973
याधीश 972
▁Dav 972
▁पश्च 971
ship 970
▁norm 968
▁अर 968
धिकारी 967
▁pursu 966
विधा 962
oir 956
▁celeb 956
▁प्रसार 956
my 953
वधिक 953
▁विज्ञा 952
oyal 950
सिल 946
iol 945
reprene 945
arters 944
ुटि 943
▁Dem 943
▁cert 939
▁mom 937
▁illeg 936
iod 935
धानिक 935
atural 934
▁Chit 932
च्छा 930
वली 926
▁cir 926
▁certific 925
▁भण्ड 925
arents 924
estic 922
▁repe 917
▁answ 915
irit 913
▁examp 911
▁hel 911
▁संर 910
▁कोइरा 909
atn 907
▁magaz 904
▁स्वय 904
विध 902
र्चा 901
▁कम्प्युट 900
हिर 899
vest 898
▁मेड 895
व्याप 893
▁देहा 889
षित 886
ead 884
्रष्ट 884
mes 880
वरण 876
पान्तरण 871
माता 869
incip 868
्रोत 864
▁Off 864
ल्यै 863
श्च 862
▁resp 861
▁exper 860
rishna 858
ecially 857
बास 857
साब 857
▁pos 856
yal 854
▁Rast 853
angu 849
▁छुट्ट 849
ester 848
▁कार्यसम् 846
▁सम्मेल 845
▁सम्ब 843
ajor 841
ording 841
artment 836
▁Khad 833
ल्पना 827
चारिक 824
▁Dep 817
hing 814
most 814
esc 811
hik 810
िकेट 809
roup 808
▁sust 808
ourn 807
लाग्दो 801
▁दबा 797
▁Nep 796
▁lat 794
cation 792
reed 792
क्षे 789
• 787
▁रेख 783
जात 781
▁Author 781
▁refer 780
orth 773
जोर 773
होर 772
लेज 771
सक्छ 771
▁mill 768
▁Aust 766
velop 765
rast 764
▁शी 762
▁अन्ति 761
तया 760
याप्त 758
ittee 756
योगि 753
▁रण 752
▁Dist 745
दृ 744
▁tom 744
▁वार्ष 743
▁शुक्र 743
वीर 740
▁Sapt 740
▁मर्म 740
▁त्र 734
मिटर 733
rought 730
▁Ger 729
while 728
▁चुन 728
▁क्याल 727
▁सुन्द 724
घि 719
▁avail 717
सम्बन्ध 714
▁चाँड 714
▁सम्प 712
ाचार 710
▁announ 710
tal 707
▁Feb 707
chn 706
म्मे 704
▁यौ 703
▁पदा 701
▁टिक 699
band 698
sue 698
द्दा 688
िकै 688
बाही 687
‘ 685
anger 683
cture 678
▁पृथ 678
ules 677
▁श्रे 672
ीक 666
▁काठमाड 666
▁सिर् 665
omen 663
▁sle 663
▁उम्मेद 663
÷ 662
ropri 661
▁सध 660
ccess 659
▁cad 659
सरमा 656
lish 654
outh 652
तरण 651
▁सदरमु 650
asion 646
▁पछ 645
▁समन्व 645
uba 643
arliament 641
▁शनि 641
rodu 640
▁destro 639
ञ्जी 636
▁Bec 635
जिनि 631
ञ 630
lood 628
▁Mao 628
जनिक 627
▁प्रतिस्पर् 627
thing 624
यण 624
▁benef 624
▁सिद्धा 624
asons 623
षद् 623
▁आलो 623
▁fut 620
urther 616
▁इस 614
▁fa 613
▁प्रग 610
▁Cong 609
स्कृतिक 608
ledge 607
ल्यू 606
ogn 601
णिज्य 599
▁prob 596
चाह 595
▁wom 592
▁च्याम्पि 591
aign 589
▁Eu 589
▁कार्या 589
कारा 584
.. 581
धिका 581
शत 580
▁खेला 580
stand 579
व्यक्ति 579
▁Kath 579
enc 578
द्या 578
योजक 578
▁बसो 575
▁डिजा 574
लत 571
owers 567
rect 565
स्थापन 564
वेक्षण 563
▁मङ्ग 562
▁इजाजत 559
▁mount 558
resent 557
leb 556
धुनिक 555
gest 554
▁relig 552
▁खारे 550
▁Brit 549
> 548
ृति 548
▁दीर्घ 545
miss 543
▁pric 543
▁इन्ध 543
र्तमान 541
fter 539
▁behav 539
▁belie 539
▁conflic 536
ashing 532
ubl 531
text 530
▁dire 530
▁Inst 529
सत 527
▁signific 527
रोड 525
▁dif 525
▁साझ 524
▁सञ्ज 523
imil 521
quake 520
▁alle 516
▁polic 516
ताव 510
अधिकार 507
uthor 505
{ 503
▁Pras 503
verage 501
« 501
▁मन्त्रिपरि 501
▁बुध 500
irth 497
न्त्रिक 497
▁Tem 495
ercial 494
▁परम 494
bassad 493
▁challen 493
▁प्रवर्द्ध 493
} 492
¥ 490
▁कारो 490
rastructure 489
प्रभु 488
सिन्दा 485
भागि 484
▁बौ 484
चय 483
agement 482
▁पत् 478
ौड 473
esterday 470
.... 469
प्रै 469
विधान 469
wo 468
ocu 467
त्तम 466
▁Joh 466
देश्य 462
द्रो 462
धिकरण 462
कम्प 461
▁ठू 461
— 460
€ 459
▁मोबा 457
ुट्टा 445
▁विजे 445
blem 443
शुल्क 443
▁हरे 442
▁dial 436
▁Yah 435
▁freed 435
हेक 434
रिद 433
arant 430
▁टुक 430
्रान्ति 429
▁उपभो 428
़ 425
▁cand 424
uary 421
▁सुझा 418
ीकृत 416
▁Administ 416
· 415
मावली 415
ौट 415
▁जरि 415
▁accord 413
पादन 412
थिक 410
ahal 406
rastru 404
istry 403
▁अध्य 402
anies 401
ween 399
abab 398
▁पक्र 398
PI 393
▁निः 393
ropriate 392
सिद्ध 392
▁Edu 391
ल्लाह 387
iscal 386
स्तार 384
 384
▁टाउ 383
udget 382
वैधानिक 382
मेरि 379
▁anim 378
lear 376
▁तरि 376
▁आइत 370
▁क्यालि 370
AND 364
दायिक 364
Œ 362
तिहा 362
▁रेक 362
iful 355
यात 355
▁Wor 354
retary 353
▁अवै 352
▁गिरफ् 352
णय 346
ऒ 344
▁bro 342
^ 341
á 341
othes 340
धारण 340
▁मूल्याङ्क 339
andari 337
▁चरि 336
र्गत 335
वित्र 334
▁निश्च 334
loy 333
Â 333
हिल्यै 333
iplom 332
र्घ 332
▁Dhar 332
riage 329
° 327
epar 323
acity 322
योर्क 322
्युनि 322
ng 321
▁mob 320
धीश 319
▁बालब 318
▁गुना 317
▁desp 314
arli 310
▁धन्य 309
archy 308
ग्गा 308
arki 307
▁अस्वी 307
▁समी 304
ivid 302
लग्न 301
▁Develop 301
arai 300
chol 298
ategy 297
नन्द 297
र्मिक 297
▁headqu 297
तृत्व 295
हित्य 295
गुन 292
▁अथ 291
chool 290
▁छिमे 289
रिक्त 287
uclear 286
ह्रो 286
▁बिस्तार 285
▁यद्य 285
reng 284
प्रिय 283
▁Chin 283
अन्त 281
▁अधिका 281
andu 278
भने 276
uled 273
ैंचा 273
adur 271
▁अख् 270
▁आन्दो 270
ुरुष 269
न्वयन 267
▁परमेश्व 266
▁परिणा 266
ंग्रे 265
▁cris 265
▁झन्ड 264
▁भवि 264
odies 263
▁agend 263
▁Aff 262
▁व्यावसाय 262
ुर्ुर् 260
▁Tod 259
▁af 259
í 258
विधिक 258
tc 257
ौती 256
ople 255
▁Af 253
▁Whe 253
▁सदर 253
ारम्भ 252
chie 251
पहि 251
ितो 249
ध्ये 246
▁opportun 245
▁धम् 244
▁जवा 243
ethod 238
▁पृ 238
▁Face 237
▁आह 237
विद्यालय 236
ilies 234
ready 234
किस्ता 231
 231
▁sched 230
indu 227
ऋ 227
▁भुक्ता 226
ighb 225
कृतिक 225
▁प्रदू 225
▁उम्मे 224
हीबार 223
▁democ 223
▁छल 222
व्र 221
ergy 220
ब्दी 220
▁हस्ता 220
wh 219
▁वरि 219
ì 218
कोण 217
्याङ्क 217
ेदार 216
▁स्थि 215
▁prog 214
▁पहु 212
▁Lt 211
▁सञ् 210
▁गिर 206
apan 204
̊ 204
▁थोर 204
समे 203
ething 202
cohol 201
इलो 199
संख्या 199
ऽ 199
▁जिम्मे 199
▁Pok 195
▁hap 194
▁Simil 193
usband 191
: 189
▁crow 189
ॉ 188
bass 187
⁄ 187
rench 186
Ç 186
 186
▁अनुसन्ध 185
ther 184
ó 184
▁मृत्य 183
 183
त्रु 180
▁कहिलेका 180
ोजिम 176
HM 175
▁Yad 173
▁कर्त 173
▁simil 171
~ 170
▁अत्य 169
▁equip 166
▁परिण 164
ˆ 163
ऐ 163
▁क्रमश 162
▁quest 160
▁demon 159
▁लडाइ 159
ourt 158
▁शता 158
ovember 157
▁Poud 157
▁Sup 157
 157
▁Lik 156
ुक्र 153
▁sever 153
▁विद्य 150
भागी 149
eech 148
▁hist 148
▁सिफ 146
mandu 144
स्पर् 143
stituent 142
œ 140
▁घाइ 140
ocial 136
ã 136
airman 135
जुद 135
▁अदाल 135
▁जोख 133
▁Chaudh 132
हेन्द्र 131
ggest 130
▁मन्त्रि 129
▁vehic 127
 126
â 124
▁त्रिभु 123
 123
è 122
ewise 120
▁&# 118
तिहासिक 117
लबार 116
▁doct 115
▁रुपै 115
idered 114
ैनिक 114
 114
onse 113
ःख 113
ेदारी 113
्वान 113
▁Journ 113
 113
ghan 111
 111
 111
द्योग 109
प्पणी 109
पेली 108
ॐ 108
धानी 106
▁लिमि 106
 106
स्ताव 105
▁Wed 105
rope 104
 104
▁आन्त 103
| 102
à 101
प्टे 101
▁आम् 99
ñ 98
भग 98
▁esp 98
oved 97
ü 97
rene 96
pril 95
कपा 95
म्परा 95
स्यौ 92
▁औद्योग 92
joy 90
ö 90
▁underst 90
▁वाता 88
▁विशि 86
¿ 85
झ्याल 85
 84
ç 82
॰ 81
 81
ficult 80
› 80
धिकारिक 78
ruary 77
 77
▁Satur 75
 75
▁अनुमो 74
▁उत्पा 74
 74
cember 73
श्चर्य 72
rael 71
ï 71
▁आफ्न 71
 71
पय 70
▁il 70
 70
 69
★ 68
जाजत 67
¶ 66
थमिक 65
दफा 65
निम् 65
विद्यु 65
▁offic 65
 63
केटी 61
विद्य 61
ॅ 61
▁Ira 60
 60
▁येश 59
 59
 59
 59
ederal 58
▁establ 58
▁प्राप्ता 58
▁व्याप 58
 57
वधान 56
॥ 56
▁journ 56
 56
/ 55
युक्ति 55
▁वक्त 55
फोर् 53
सङ्ख्या 53
≠ 53
ä 52
▁Mean 51
्ञ 50
▁विस्त 50
ú 49
▁Jes 49
 49
 49
× 48
 48
▁चट्ट 47
raid 46
′ 46
▁अद्या 46
 46
 46
 46
 46
 46
 46
वायु 45
 45
gypt 44
▁bec 44
 44
minist 43
▁याता 43
 43
 43
द्दत 42
▁डल 42
 42
 42
→ 41
▁Adhik 41
 41
त्वपूर्ण 40
मेलन 40
† 40
ê 39
 39
▁indust 38
▁जरु 38
atnagar 37
Ã 37
 37
ैमासिक 36
ô 35
ğ 35
▁स्वामि 35
▁suc 34
▁शारी 34
ondon 33
ا 33
गाडि 32
पोरे 32
 32
 32
ऑ 31
‰ 31
ttp 30
ë 30
 30
ل 29
▁Prach 29
▁मस्यौ 29
ashington 28
mber 28
unicipality 28
मीण 28
▁Tues 28
 28
É 27
ऱ 27
▁Thurs 27
 27
 27
 26
 26
 26
Á 25
Ô 25
▁Koir 25
▁coop 25
 25
 25
 25
 25
RNew 24
́ 24
α 24
μ 24
≈ 24
 24
а 23
и 23
া 23
▁विश्ले 23
 23
 23
 23
 23
± 22
― 22
 22
е 21
م 21
‚ 21
 21
 21
 21
 21
ohol 20
т 20
▁KAT 20
▁परिभा 20
 20
 20
 20
 20
 20
arlier 19
ن 19
▁Desp 19
▁इन्कर्पोरे 19
▁चेताव 19
 19
 19
 19
 19
 19
¬ 18
ι 18
н 18
ر 18
▁Wednes 18
▁giv 18
▁खाद्या 18
▁तुरु 18
 18
 18
 18
ladesh 17
̧ 17
ळ 17
▁गम्भ 17
 17
 17
 17
 17
Ò 16
Û 16
ॠ 16
▁Chaud 16
▁पराम 16
 16
 16
 16
­ 15
о 15
р 15
 15
 15
 15
Þ 14
चिव 14
্ 14
▁Shrest 14
ò 13
ی 13
॒ 13
র 13
▁Gaut 13
 13
 13
 13
hedu 12
ospital 12
ø 12
ت 12
د 12
फोर्निया 12
ॊ 12
▁चिकि 12
 12
 12
 12
 12
ternational 11
ń 11
ō 11
˗ 11
β 11
ρ 11
ب 11
कर्पोरे 11
वार्य 11
▲ 11
 11
 11
 11
 11
 11
 11
ς 10
τ 10
в 10
к 10
с 10
ר 10
णविक 10
‬ 10
‽ 10
▁agricult 10
 10
 10
 10
weh 9
Í 9
Ø 9
̈ 9
π 9
س 9
و 9
ন 9
 9
 9
 9
 9
 9
 9
È 8
ā 8
Š 8
θ 8
κ 8
М 8
গ 8
দ 8
ে 8
‪ 8
− 8
▁इस्रा 8
 8
® 7
æ 7
û 7
ž 7
ε 7
λ 7
ο 7
א 7
ي 7
۞ 7
ऍ 7
न्तित 7
॔ 7
ব 7
ল 7
স 7
ি 7
้ 7
 7
 7
 7
 7
 7
Ï 6
Ö 6
î 6
ù 6
ł 6
ά 6
ॄ 6
ম 6
য 6
ী 6
് 6
ม 6
▁docu 6
▁ww 6
の 6
山 6
 6
 6
 6
 6
 6
 6
 6
 6
? 5
ANDU 5
¤ 5
Ù 5
ă 5
η 5
ν 5
σ 5
у 5
ة 5
خ 5
ف 5
ق 5
জ 5
় 5
ু 5
் 5
ร 5
་ 5
„ 5
▁hig 5
■ 5
ゃ 5
ん 5
キ 5
藏 5
 5
 5
️ 5
¢ 4
Ä 4
Å 4
ß 4
å 4
Ş 4
ş 4
Ţ 4
ţ 4
Μ 4
ύ 4
г 4
з 4
л 4
м 4
ц 4
ו 4
י 4
ع 4
ك 4
ॆ 4
॑ 4
ੰ 4
ജ 4
් 4
ต 4
า 4
‐ 4
₪ 4
▁KATHM 4
▁chall 4
▁toget 4
● 4
⚡ 4
「 4
」 4
ち 4
な 4
ア 4
ラ 4
不 4
便 4
地 4
所 4
浄 4
 4
 4
 4
 4
 4
 4
 4
 4
 4
 4
 4
 4
💦 4
¦ 3
Ó 3
Ú 3
Ü 3
ð 3
õ 3
ý 3
þ 3
ÿ 3
ū 3
ː 3
̃ 3
δ 3
υ 3
ό 3
й 3
ל 3
פ 3
ק 3
ש 3
ת 3
ح 3
ہ 3
ऩ 3
ক 3
ত 3
প 3
হ 3
્ 3
ர 3
ா 3
ி 3
ర 3
్ 3
න 3
ල 3
ි 3
ง 3
น 3
พ 3
ส 3
₹ 3
∙ 3
√ 3
∞ 3
∶ 3
☺ 3
♥ 3
々 3
ー 3
宵 3
西 3
 3
 3
 3
 3
 3
 3
 3
 3
¡ 2
À 2
Æ 2
Ê 2
Ë 2
Ì 2
Î 2
Ð 2
Ñ 2
Õ 2
Ý 2
Ă 2
č 2
ŏ 2
š 2
έ 2
ή 2
ί 2
ζ 2
ξ 2
В 2
д 2
ч 2
ш 2
ю 2
ב 2
ן 2
נ 2
ز 2
ص 2
غ 2
ٹ 2
پ 2
گ 2
۩ 2
ऎ 2
ং 2
ই 2
ঙ 2
চ 2
ড 2
ਨ 2
ਮ 2
ਰ 2
ਸ 2
ક 2
ષ 2
ச 2
த 2
ன 2
ய 2
ஸ 2
ு 2
ు 2
ബ 2
ാ 2
ി 2
ോ 2
ත 2
ද 2
ා 2
ේ 2
ค 2
ช 2
บ 2
ล 2
ะ 2
ั 2
ุ 2
เ 2
ไ 2
ບ 2
ḥ 2
ὰ 2
‹ 2
₫ 2
▁dou 2
▽ 2
♣ 2
♫ 2
❁ 2
⭐ 2
い 2
う 2
さ 2
た 2
っ 2
に 2
め 2
よ 2
れ 2
を 2
ネ 2
ノ 2
一 2
三 2
世 2
人 2
住 2
公 2
区 2
吐 2
営 2
坊 2
型 2
大 2
宅 2
害 2
弾 2
戦 2
新 2
材 2
次 2
汚 2
溜 2
災 2
爆 2
界 2
禾 2
秒 2
第 2
肥 2
航 2
蕃 2
逸 2
離 2
飯 2
다 2
주 2
 2
 2
 2
 2
 2
 2
 2
 2
 2
 2
 2
 2
🏻 2
😃 2
🙂 2
🤔 2
 1
 1
 1
ę 1
ī 1
Ō 1
ő 1
Ř 1
ś 1
ƒ 1
ǎ 1
ǒ 1
ǔ 1
ǧ 1
Β 1
Η 1
γ 1
φ 1
χ 1
б 1
п 1
ф 1
х 1
щ 1
ы 1
ג 1
ח 1
ט 1
מ 1
ע 1
ؘ 1
ء 1
أ 1
ج 1
ش 1
ى 1
ُ 1
ښ 1
ک 1
ھ 1
ې 1
ے 1
ހ 1
ދ 1
ތ 1
ަ 1
ި 1
ޫ 1
ऌ 1
ॱ 1
ঁ 1
আ 1
ও 1
ছ 1
ঞ 1
ট 1
ধ 1
ফ 1
শ 1
ষ 1
ো 1
১ 1
ৰ 1
ৱ 1
৷ 1
ਗ 1
ਘ 1
ਜ 1
ਤ 1
ਦ 1
ਧ 1
ਬ 1
ਲ 1
ਹ 1
ਿ 1
ੀ 1
ੇ 1
ੋ 1
જ 1
ઞ 1
િ 1
ે 1
க 1
ப 1
ற 1
ள 1
ழ 1
வ 1
ீ 1
ே 1
గ 1
త 1
థ 1
న 1
మ 1
శ 1
హ 1
ా 1
ి 1
ొ 1
അ 1
ഖ 1
ഞ 1
ന 1
യ 1
ര 1
റ 1
സ 1
ു 1
ක 1
ග 1
ම 1
ය 1
ර 1
ෂ 1
ස 1
ු 1
ก 1
ข 1
ญ 1
ฐ 1
ณ 1
ท 1
ป 1
ฟ 1
ย 1
อ 1
ี 1
โ 1
ํ 1
ງ 1
ນ 1
ຟ 1
ັ 1
ຸ 1
ໄ 1
້ 1
ཎ 1
ད 1
པ 1
མ 1
ཧ 1
ཨ 1
ི 1
ུ 1
ེ 1
ོ 1
ཾ 1
ྃ 1
ྨ 1
ᅳ 1
ṛ 1
ễ 1
ἀ 1
ἅ 1
∈ 1
∕ 1
□ 1
♂ 1
♏ 1
♦ 1
✄ 1
✨ 1
➡ 1
お 1
か 1
く 1
し 1
じ 1
ぺ 1
ょ 1
り 1
イ 1
オ 1
ガ 1
シ 1
ズ 1
タ 1
ル 1
レ 1
下 1
京 1
力 1
卓 1
喜 1
国 1
國 1
多 1
奧 1
宮 1
岡 1
巡 1
弃 1
族 1
星 1
暴 1
有 1
東 1
樂 1
気 1
水 1
油 1
疾 1
站 1
者 1
能 1
行 1
豚 1
走 1
超 1
辛 1
遥 1
酢 1
醤 1
金 1
鉾 1
霊 1
音 1
骨 1
鮨 1
금 1
도 1
럭 1
마 1
바 1
법 1
사 1
산 1
성 1
식 1
음 1
이 1
인 1
제 1
케 1
키 1
티 1
회 1
 1
 1
 1
 1
 1
 1
 1
 1
 1
 1
 1
 1
 1
 1
 1
 1
🇯 1
🇵 1
🌍 1
🎂 1
🎥 1
🐘 1
🐦 1
👏 1
🗣 1
😍 1
🙏 1
🤳 1
🥳 1
madeupword0000 0
madeupword0001 0
madeupword0002 0
