<unk>	0
<s>	0
</s>	0
▁t	-0
he	-1
▁a	-2
in	-3
▁,	-4
▁स	-5
▁the	-6
र्	-7
▁प	-8
को	-9
मा	-10
्र	-11
re	-12
on	-13
न्	-14
का	-15
▁s	-16
er	-17
▁.	-18
▁o	-19
▁ग	-20
at	-21
en	-22
▁w	-23
is	-24
▁र	-25
ले	-26
्य	-27
▁c	-28
an	-29
it	-30
al	-31
▁p	-32
▁b	-33
ed	-34
ने	-35
or	-36
ला	-37
▁of	-38
ar	-39
▁f	-40
▁अ	-41
▁ब	-42
es	-43
ing	-44
▁क	-45
▁व	-46
nd	-47
▁in	-48
▁to	-49
▁भ	-50
▁ह	-51
▁h	-52
ou	-53
▁m	-54
▁त	-55
as	-56
▁d	-57
नि	-58
ion	-59
ार	-60
▁म	-61
ic	-62
▁and	-63
▁छ	-64
▁प्र	-65
▁द	-66
स्	-67
हर	-68
▁आ	-69
यो	-70
le	-71
om	-72
os	-73
ent	-74
ot	-75
क्	-76
▁ज	-77
ति	-78
▁&	-79
▁गर्	-80
ता	-81
▁th	-82
▁उ	-83
ना	-84
il	-85
▁T	-86
▁n	-87
ap	-88
नु	-89
▁be	-90
ve	-91
हरू	-92
ाल	-93
रि	-94
id	-95
▁वि	-96
लाई	-97
▁re	-98
म्	-99
▁S	-100
▁l	-101
ad	-102
ct	-103
▁e	-104
▁य	-105
ान	-106
▁is	-107
▁g	-108
▁I	-109
ro	-110
त्र	-111
▁का	-112
apos	-113
▁A	-114
am	-115
एको	-116
ur	-117
st	-118
ay	-119
ut	-120
▁न	-121
▁मा	-122
▁M	-123
im	-124
ation	-125
वा	-126
रा	-127
थि	-128
रे	-129
▁च	-130
्या	-131
▁C	-132
ol	-133
▁The	-134
▁for	-135
▁रा	-136
qu	-137
त्	-138
▁on	-139
et	-140
▁B	-141
▁ए	-142
ly	-143
▁श	-144
▁हु	-145
▁नि	-146
▁that	-147
ce	-148
री	-149
▁N	-150
या	-151
ver	-152
ment	-153
नी	-154
▁स्	-155
▁ल	-156
▁P	-157
▁ख	-158
ow	-159
ir	-160
ter	-161
दा	-162
ig	-163
▁st	-164
ित	-165
क्ष	-166
िक	-167
us	-168
ch	-169
था	-170
▁he	-171
▁-	-172
ल्	-173
ill	-174
ep	-175
▁गरे	-176
बा	-177
▁थि	-178
el	-179
्ट	-180
▁(	-181
▁सं	-182
ist	-183
ra	-184
▁al	-185
▁wh	-186
▁)	-187
▁D	-188
un	-189
▁ला	-190
▁con	-191
▁फ	-192
▁सा	-193
हि	-194
ith	-195
द्	-196
quot	-197
ak	-198
हा	-199
▁y	-200
and	-201
न्छ	-202
▁was	-203
ers	-204
▁H	-205
▁it	-206
▁has	-207
▁पनि	-208
▁ने	-209
▁not	-210
ul	-211
▁R	-212
op	-213
▁with	-214
ेश	-215
ld	-216
▁दि	-217
ri	-218
▁गर्न	-219
स्त	-220
▁pro	-221
्न	-222
▁com	-223
▁as	-224
▁"	-225
हे	-226
ave	-227
▁an	-228
▁त्य	-229
▁पा	-230
her	-231
गि	-232
em	-233
▁हो	-234
▁सम	-235
▁are	-236
res	-237
दै	-238
▁sa	-239
बाट	-240
ag	-241
ुर	-242
rom	-243
▁W	-244
ate	-245
मी	-246
▁K	-247
▁have	-248
art	-249
▁by	-250
ity	-251
▁१	-252
ष्ट	-253
ec	-254
वि	-255
पाल	-256
कार	-257
▁गरि	-258
ेर	-259
▁आफ	-260
if	-261
est	-262
न्द	-263
▁के	-264
▁यस	-265
▁we	-266
▁sh	-267
▁कु	-268
पा	-269
▁यो	-270
▁said	-271
लो	-272
धि	-273
र्य	-274
od	-275
▁at	-276
▁हा	-277
▁G	-278
▁गर्ने	-279
▁सम्	-280
▁1	-281
▁ट	-282
ाउ	-283
▁ड	-284
ore	-285
▁वा	-286
▁from	-287
ain	-288
th	-289
oc	-290
ab	-291
▁F	-292
▁भन्	-293
ही	-294
लि	-295
▁छन्	-296
▁r	-297
▁su	-298
▁नेपाल	-299
▁Nep	-300
nt	-301
▁Nepal	-302
▁ध	-303
▁v	-304
ess	-305
▁go	-306
▁or	-307
▁२	-308
सा	-309
▁L	-310
ac	-311
▁घ	-312
ेख	-313
न्त	-314
एका	-315
भा	-316
ँग	-317
ect	-318
ort	-319
्च	-320
ear	-321
iv	-322
▁ex	-323
्रो	-324
रण	-325
all	-326
▁will	-327
्रि	-328
our	-329
ive	-330
ould	-331
ies	-332
▁पु	-333
ew	-334
▁बा	-335
▁le	-336
▁:	-337
हरु	-338
um	-339
igh	-340
ङ्	-341
ant	-342
छि	-343
▁थियो	-344
▁प्रति	-345
ud	-346
▁राज	-347
सँग	-348
▁भने	-349
ice	-350
▁एक	-351
न्त्र	-352
प्	-353
▁तर	-354
▁सु	-355
▁E	-356
ली	-357
िन	-358
▁this	-359
red	-360
▁भएको	-361
▁आफ्न	-362
▁been	-363
▁कार्य	-364
र्ष	-365
▁O	-366
▁ch	-367
▁व्य	-368
▁लागि	-369
end	-370
▁wor	-371
▁k	-372
▁इ	-373
ीय	-374
ry	-375
▁2	-376
▁J	-377
ous	-378
हरूले	-379
मे	-380
pp	-381
so	-382
ial	-383
▁क्	-384
गा	-385
▁थिए	-386
ारी	-387
ूर्	-388
▁निर्	-389
▁u	-390
▁de	-391
▁उन	-392
▁In	-393
▁आफ्नो	-394
रहे	-395
▁pl	-396
नुभ	-397
▁परि	-398
▁को	-399
पमा	-400
कि	-401
▁also	-402
्रा	-403
▁who	-404
स्था	-405
भि	-406
के	-407
्रम	-408
gh	-409
नेछ	-410
▁उप	-411
टा	-412
▁U	-413
पछि	-414
▁दु	-415
▁se	-416
ौं	-417
योग	-418
▁his	-419
ध्य	-420
▁गरेको	-421
न्य	-422
▁ति	-423
▁मु	-424
▁बढ	-425
▁?	-426
▁'	-427
ast	-428
▁Ch	-429
▁से	-430
▁उनी	-431
▁Th	-432
ome	-433
▁ab	-434
ong	-435
▁त्यस	-436
▁सि	-437
▁ag	-438
ang	-439
ard	-440
▁विश	-441
्व	-442
ight	-443
ip	-444
हाँ	-445
पर्	-446
▁you	-447
की	-448
▁ठ	-449
out	-450
बार	-451
जा	-452
▁देख	-453
rou	-454
ust	-455
ime	-456
ame	-457
▁ना	-458
ount	-459
ok	-460
न्ध	-461
▁बि	-462
ord	-463
▁अनु	-464
▁प्रा	-465
cc	-466
द्ध	-467
▁पर्	-468
ure	-469
▁रू	-470
ary	-471
सम्	-472
कारी	-473
▁सर	-474
fter	-475
▁सक्	-476
ff	-477
ction	-478
▁सब	-479
सि	-480
ated	-481
ub	-482
▁pe	-483
vern	-484
▁sp	-485
▁गर्नु	-486
जना	-487
ia	-488
ैन	-489
▁वर्ष	-490
ik	-491
age	-492
ेल	-493
ारा	-494
▁comp	-495
रो	-496
iz	-497
ru	-498
▁inc	-499
▁क्ष	-500
ther	-501
▁लि	-502
se	-503
▁बता	-504
ric	-505
ानी	-506
▁do	-507
▁ad	-508
▁part	-509
▁सबै	-510
ople	-511
ah	-512
सी	-513
te	-514
▁im	-515
▁can	-516
▁मि	-517
देश	-518
▁me	-519
न्दा	-520
vel	-521
▁समा	-522
ich	-523
दी	-524
▁year	-525
क्ति	-526
ide	-527
vernment	-528
मि	-529
▁j	-530
one	-531
▁छैन	-532
टी	-533
▁all	-534
स्ता	-535
▁were	-536
▁भए	-537
ण्	-538
▁हामी	-539
द्य	-540
ost	-541
हु	-542
ans	-543
क्त	-544
▁कि	-545
न्न	-546
ue	-547
नुभयो	-548
▁जा	-549
डि	-550
▁whe	-551
▁res	-552
▁pol	-553
ress	-554
यन	-555
▁गरिएको	-556
्रे	-557
ical	-558
▁He	-559
ोज	-560
ालय	-561
ती	-562
र्थ	-563
हो	-564
▁तथा	-565
ाइ	-566
▁सह	-567
ake	-568
▁रूपमा	-569
क्षा	-570
छन्	-571
▁people	-572
▁अव	-573
▁dis	-574
ग्	-575
▁काम	-576
▁work	-577
हरूको	-578
्री	-579
▁“	-580
हिले	-581
av	-582
ेको	-583
▁उत्	-584
ber	-585
▁२०	-586
सम्म	-587
▁but	-588
▁their	-589
▁there	-590
▁they	-591
म्प	-592
ंग	-593
00	-594
▁un	-595
▁exp	-596
ण्ड	-597
नमा	-598
▁It	-599
▁नै	-600
▁रहे	-601
▁off	-602
ie	-603
▁per	-604
▁after	-605
▁had	-606
▁मात्र	-607
नको	-608
▁जि	-609
ven	-610
▁सो	-611
ance	-612
▁व्यव	-613
ire	-614
▁government	-615
▁man	-616
▁कुरा	-617
ade	-618
उने	-619
र्ता	-620
भाव	-621
du	-622
▁ar	-623
▁/	-624
प्र	-625
▁’	-626
▁us	-627
▁केही	-628
ack	-629
भन्दा	-630
▁चा	-631
ुरु	-632
ays	-633
ident	-634
▁भन्ने	-635
उँ	-636
▁Y	-637
▁थ	-638
ैले	-639
ign	-640
दि	-641
▁।	-642
▁cl	-643
▁which	-644
ष्	-645
नै	-646
धार	-647
ेत्र	-648
हरूलाई	-649
▁ती	-650
ition	-651
ेट	-652
▁राष्ट	-653
▁ne	-654
▁बना	-655
ult	-656
म्रो	-657
▁जन	-658
▁comm	-659
▁other	-660
गत	-661
▁भा	-662
ell	-663
▁सरकार	-664
त्य	-665
उन	-666
port	-667
ish	-668
▁पार्	-669
टो	-670
▁अधि	-671
ree	-672
▁te	-673
ace	-674
ine	-675
▁ले	-676
धान	-677
▁count	-678
न्ड	-679
▁क्षेत्र	-680
▁time	-681
बन्ध	-682
are	-683
▁cont	-684
pt	-685
सले	-686
very	-687
▁हुने	-688
ब्	-689
▁धेर	-690
▁V	-691
▁३	-692
ath	-693
▁pr	-694
दछ	-695
ge	-696
▁राख	-697
निक	-698
ile	-699
day	-700
त्व	-701
ञ्च	-702
दन	-703
प्त	-704
▁one	-705
ose	-706
रहेको	-707
▁Sh	-708
▁धेरै	-709
▁हि	-710
सार	-711
स्तो	-712
lic	-713
▁”	-714
ेला	-715
दैन	-716
याँ	-717
▁मानि	-718
▁3	-719
मु	-720
lo	-721
▁रु	-722
ari	-723
ल्ला	-724
न्द्र	-725
▁बो	-726
▁हुन	-727
क्रम	-728
▁about	-729
ations	-730
ase	-731
थान	-732
एर	-733
्रिय	-734
nder	-735
तिक	-736
▁Ind	-737
▁its	-738
▁स्व	-739
▁should	-740
चार	-741
▁अन्त	-742
ib	-743
ational	-744
orm	-745
wo	-746
ुट	-747
डा	-748
ind	-749
▁कुनै	-750
▁रो	-751
▁more	-752
▁bec	-753
▁out	-754
ark	-755
र्म	-756
ove	-757
▁tr	-758
रु	-759
शा	-760
ens	-761
्ञ	-762
▁no	-763
्यो	-764
▁झ	-765
लागि	-766
सन	-767
द्व	-768
▁जो	-769
▁ro	-770
िम	-771
aj	-772
▁उनले	-773
▁पूर्	-774
ङ्ग	-775
ren	-776
▁new	-777
माण	-778
▁हुन्छ	-779
ass	-780
hed	-781
ail	-782
▁any	-783
og	-784
डी	-785
ाउँ	-786
मान	-787
per	-788
▁चि	-789
रमा	-790
इन	-791
ike	-792
ूल	-793
▁महि	-794
▁गरेका	-795
बी	-796
वे	-797
जी	-798
▁अर्	-799
ence	-800
ution	-801
ुक	-802
▁only	-803
पूर्	-804
▁दा	-805
यु	-806
▁दिन	-807
ँच	-808
ild	-809
old	-810
ाली	-811
न्ट	-812
rit	-813
▁app	-814
ister	-815
▁But	-816
▁या	-817
▁नेपाली	-818
ank	-819
▁बु	-820
ach	-821
able	-822
▁दुई	-823
▁बढी	-824
▁en	-825
▁them	-826
▁As	-827
कास	-828
▁under	-829
होस्	-830
▁so	-831
erv	-832
▁int	-833
णा	-834
▁up	-835
श्य	-836
▁two	-837
▁शा	-838
▁भार	-839
देख	-840
velop	-841
▁५	-842
ram	-843
▁acc	-844
पाई	-845
▁यु	-846
▁मानिस	-847
▁समय	-848
▁अनि	-849
▁dec	-850
▁Min	-851
▁लग	-852
ater	-853
aw	-854
▁sec	-855
▁खा	-856
int	-857
▁स्थान	-858
▁देखि	-859
▁when	-860
▁मो	-861
▁तपाई	-862
▁पर	-863
▁cons	-864
नुपर्	-865
▁rec	-866
कृ	-867
▁भारत	-868
▁lead	-869
▁would	-870
▁am	-871
देखि	-872
▁था	-873
कालागि	-874
tern	-875
▁such	-876
रहेका	-877
▁pre	-878
▁शि	-879
▁him	-880
▁if	-881
▁त्यो	-882
▁ओ	-883
omm	-884
म्ब	-885
▁5	-886
amp	-887
▁;	-888
▁pres	-889
fe	-890
▁अहिले	-891
ook	-892
▁like	-893
▁विकास	-894
▁गर्दै	-895
▁मह	-896
▁एउ	-897
ज्ञ	-898
ैं	-899
टक	-900
▁देश	-901
▁अन्य	-902
▁country	-903
▁inv	-904
▁हे	-905
li	-906
वादी	-907
▁fir	-908
▁ठू	-909
िका	-910
▁St	-911
▁than	-912
▁रहेको	-913
ions	-914
gan	-915
▁प्रयोग	-916
▁dist	-917
▁भएका	-918
form	-919
▁छो	-920
▁गरी	-921
जार	-922
▁४	-923
र्व	-924
rict	-925
▁उहाँ	-926
ating	-927
▁Pr	-928
▁made	-929
ors	-930
मेरि	-931
ons	-932
जन	-933
use	-934
▁भयो	-935
▁विश्व	-936
स्ट	-937
▁अप	-938
▁अमेरि	-939
कै	-940
ian	-941
द्वारा	-942
धा	-943
act	-944
rough	-945
ning	-946
घि	-947
न्त्री	-948
▁years	-949
्याप	-950
▁qu	-951
र्ड	-952
stit	-953
other	-954
rest	-955
ally	-956
▁पहि	-957
▁some	-958
्ने	-959
▁sc	-960
ities	-961
▁आव	-962
ough	-963
we	-964
▁again	-965
यम	-966
▁There	-967
र्ग	-968
ond	-969
▁नयाँ	-970
▁तिनी	-971
▁गो	-972
▁her	-973
▁This	-974
▁भन्नुभयो	-975
ording	-976
वी	-977
own	-978
▁नग	-979
▁गा	-980
▁–	-981
▁over	-982
श्यक	-983
▁परिव	-984
श्च	-985
▁व्यक्ति	-986
र्त	-987
▁prov	-988
▁गु	-989
▁imp	-990
▁अध्य	-991
ङ्क	-992
यर	-993
ुन	-994
lect	-995
▁जिल्ला	-996
ists	-997
सको	-998
▁सम्बन्ध	-999
▁first	-1000
▁कारण	-1001
खा	-1002
▁सञ्च	-1003
ound	-1004
▁em	-1005
oss	-1006
▁rel	-1007
▁We	-1008
▁अस	-1009
्वा	-1010
स्तै	-1011
▁औ	-1012
ved	-1013
ublic	-1014
▁De	-1015
▁form	-1016
▁स्वा	-1017
iss	-1018
man	-1019
ha	-1020
▁एउटा	-1021
▁mon	-1022
▁ढ	-1023
▁br	-1024
ory	-1025
चि	-1026
रको	-1027
▁हुँ	-1028
चा	-1029
ings	-1030
तन्त्र	-1031
मुख	-1032
▁राष्ट्र	-1033
फल	-1034
▁dem	-1035
▁kn	-1036
ेका	-1037
▁आवश्यक	-1038
und	-1039
rib	-1040
ाउन	-1041
च्च	-1042
rent	-1043
▁add	-1044
स्थ	-1045
हरी	-1046
▁Wh	-1047
▁develop	-1048
ise	-1049
▁reg	-1050
क्षण	-1051
▁तिमी	-1052
fore	-1053
▁did	-1054
up	-1055
ताको	-1056
▁जी	-1057
ced	-1058
र्श	-1059
ject	-1060
▁Al	-1061
ेक	-1062
हरूमा	-1063
सो	-1064
न्ति	-1065
▁even	-1066
ces	-1067
▁Nepali	-1068
▁my	-1069
lud	-1070
ower	-1071
▁पो	-1072
ned	-1073
ेत	-1074
▁सेवा	-1075
▁att	-1076
जि	-1077
ite	-1078
मक	-1079
▁prog	-1080
▁Comm	-1081
▁polit	-1082
▁राज्य	-1083
ेरो	-1084
▁now	-1085
▁लाग	-1086
▁व्यवस्था	-1087
ause	-1088
▁ind	-1089
▁कस	-1090
००	-1091
▁Ma	-1092
▁state	-1093
▁राजनी	-1094
▁अभि	-1095
टि	-1096
▁she	-1097
reat	-1098
र्क	-1099
▁Bh	-1100
▁प्रश	-1101
▁पुन	-1102
air	-1103
▁shall	-1104
▁rem	-1105
लमा	-1106
▁ता	-1107
▁बताए	-1108
▁19	-1109
cy	-1110
▁भू	-1111
त्त	-1112
न्छन्	-1113
hes	-1114
▁कार्यक्रम	-1115
erson	-1116
▁say	-1117
दान	-1118
▁could	-1119
र्या	-1120
▁गर्दछ	-1121
साय	-1122
▁हुन्	-1123
▁मे	-1124
▁ठूलो	-1125
▁कम	-1126
्यान	-1127
▁your	-1128
वन	-1129
▁loc	-1130
स्य	-1131
▁कम्प	-1132
▁act	-1133
▁po	-1134
ink	-1135
टर	-1136
▁फि	-1137
low	-1138
▁co	-1139
pen	-1140
पि	-1141
यत	-1142
▁गरा	-1143
▁सी	-1144
eral	-1145
ek	-1146
कर्ता	-1147
▁प्राप्त	-1148
ased	-1149
मो	-1150
▁ra	-1151
▁सू	-1152
चना	-1153
▁Minister	-1154
▁मैले	-1155
arm	-1156
समा	-1157
धिक	-1158
▁केन्द्र	-1159
▁हुनेछ	-1160
▁सद	-1161
लन	-1162
ोष	-1163
▁सुरु	-1164
नुहु	-1165
्रिया	-1166
row	-1167
ai	-1168
▁६	-1169
▁प्रहरी	-1170
ash	-1171
ied	-1172
▁परम	-1173
▁सुर	-1174
न्या	-1175
ates	-1176
से	-1177
▁घर	-1178
▁our	-1179
कु	-1180
युक्त	-1181
ted	-1182
▁incre	-1183
▁play	-1184
ष्ठ	-1185
रिक	-1186
▁bet	-1187
▁सकि	-1188
र्फ	-1189
सके	-1190
hip	-1191
▁into	-1192
▁includ	-1193
▁start	-1194
▁serv	-1195
▁गर्दा	-1196
▁किन	-1197
िति	-1198
करण	-1199
▁संघ	-1200
ुर्	-1201
uring	-1202
▁भि	-1203
ble	-1204
ञ्	-1205
▁may	-1206
वाद	-1207
▁पार्टी	-1208
▁If	-1209
oun	-1210
ग्र	-1211
▁लेख	-1212
▁निर्माण	-1213
▁मेरो	-1214
▁On	-1215
itte	-1216
▁4	-1217
▁dif	-1218
पी	-1219
ious	-1220
stitution	-1221
स्थि	-1222
▁India	-1223
▁what	-1224
▁stud	-1225
ents	-1226
ick	-1227
▁मूल	-1228
ouse	-1229
uc	-1230
ited	-1231
aking	-1232
▁min	-1233
▁प्रमुख	-1234
▁१९	-1235
ft	-1236
▁program	-1237
illion	-1238
▁col	-1239
▁खु	-1240
▁श्री	-1241
▁घट	-1242
als	-1243
▁‘	-1244
▁Un	-1245
▁२००	-1246
ोर	-1247
su	-1248
▁organ	-1249
कमा	-1250
▁समिति	-1251
▁काठ	-1252
▁साथ	-1253
▁offic	-1254
▁तीन	-1255
▁सञ्चाल	-1256
ever	-1257
पना	-1258
▁rep	-1259
▁good	-1260
ife	-1261
vers	-1262
ेष	-1263
पत्र	-1264
▁योजना	-1265
▁through	-1266
ood	-1267
les	-1268
▁call	-1269
▁How	-1270
elf	-1271
▁ent	-1272
▁make	-1273
▁हाम्रो	-1274
▁७	-1275
▁बे	-1276
▁विष	-1277
▁many	-1278
ism	-1279
▁right	-1280
ward	-1281
ments	-1282
▁200	-1283
पूर्ण	-1284
oci	-1285
▁20	-1286
▁tra	-1287
ision	-1288
▁सामा	-1289
▁निका	-1290
रू	-1291
ittee	-1292
▁three	-1293
▁against	-1294
get	-1295
▁पूर्व	-1296
▁bu	-1297
▁!	-1298
ix	-1299
ince	-1300
मन्त्री	-1301
▁ल्या	-1302
▁विद्य	-1303
▁लगा	-1304
▁आयो	-1305
alk	-1306
▁स्था	-1307
▁party	-1308
▁produ	-1309
▁कम्पनी	-1310
▁रि	-1311
▁आर्	-1312
▁यी	-1313
▁get	-1314
▁खोज	-1315
ital	-1316
▁सहयोग	-1317
con	-1318
any	-1319
बारे	-1320
▁सन्	-1321
▁come	-1322
▁नभ	-1323
ange	-1324
ert	-1325
ey	-1326
▁उहाँले	-1327
▁0	-1328
भाग	-1329
▁उत्पा	-1330
▁पू	-1331
▁fin	-1332
round	-1333
▁district	-1334
▁मान	-1335
▁every	-1336
▁महिला	-1337
▁wom	-1338
led	-1339
▁bus	-1340
ock	-1341
▁Am	-1342
▁last	-1343
ting	-1344
ाउने	-1345
हित	-1346
जिक	-1347
stru	-1348
▁पहिलो	-1349
▁fe	-1350
▁अर्को	-1351
नले	-1352
▁अधिकारी	-1353
ful	-1354
क्ता	-1355
cent	-1356
▁जान	-1357
▁टो	-1358
▁स्थानीय	-1359
▁भइ	-1360
▁डि	-1361
फा	-1362
जे	-1363
ख्या	-1364
▁अस्	-1365
र्च	-1366
▁public	-1367
▁महा	-1368
▁राम्रो	-1369
▁यसको	-1370
ool	-1371
ility	-1372
irect	-1373
▁invest	-1374
▁Acc	-1375
लर	-1376
ob	-1377
▁अवस्था	-1378
▁गत	-1379
▁मलाई	-1380
▁खेल	-1381
wn	-1382
▁same	-1383
▁need	-1384
▁होइन	-1385
▁fore	-1386
▁meet	-1387
▁पुग	-1388
▁sub	-1389
▁supp	-1390
▁तपाईँ	-1391
▁रह	-1392
न्स	-1393
▁उनको	-1394
पति	-1395
▁फे	-1396
▁mem	-1397
▁7	-1398
▁राष्ट्रिय	-1399
uch	-1400
शत	-1401
ract	-1402
ओवादी	-1403
▁sy	-1404
▁आधार	-1405
▁विशेष	-1406
▁प्रव	-1407
ov	-1408
अनु	-1409
ives	-1410
इएको	-1411
▁काठमा	-1412
▁person	-1413
▁गरेर	-1414
स्रो	-1415
हरुको	-1416
ूह	-1417
ल्या	-1418
▁विषय	-1419
▁Mao	-1420
▁नेता	-1421
▁mark	-1422
▁हाल	-1423
्छ	-1424
त्ति	-1425
rop	-1426
▁these	-1427
▁organiz	-1428
▁सदस्य	-1429
▁छा	-1430
▁कार्यालय	-1431
▁प्रतिशत	-1432
लको	-1433
अघि	-1434
▁very	-1435
oth	-1436
▁An	-1437
▁पि	-1438
▁गर्यो	-1439
▁disc	-1440
मति	-1441
▁child	-1442
▁bl	-1443
ोग	-1444
▁संस्था	-1445
▁नाम	-1446
▁day	-1447
▁सक्छ	-1448
▁They	-1449
▁मन	-1450
स्या	-1451
▁सरकारले	-1452
ief	-1453
▁बन्द	-1454
पन	-1455
▁अन्तर्	-1456
स्तु	-1457
▁व्यवसाय	-1458
ख्य	-1459
ध्ये	-1460
ative	-1461
▁ass	-1462
▁cent	-1463
iness	-1464
lection	-1465
▁प्रत्य	-1466
त्मक	-1467
▁अध्यक्ष	-1468
क्रिया	-1469
uth	-1470
ather	-1471
▁According	-1472
▁चाह	-1473
▁काठमाड	-1474
ese	-1475
▁while	-1476
र्न	-1477
▁दो	-1478
au	-1479
▁resp	-1480
▁being	-1481
ड्	-1482
▁says	-1483
ोक	-1484
▁development	-1485
▁राजनीतिक	-1486
ict	-1487
▁take	-1488
▁political	-1489
▁प्रभाव	-1490
▁दे	-1491
▁cur	-1492
▁those	-1493
alth	-1494
▁व्याप	-1495
▁गर्नुहोस्	-1496
शी	-1497
▁cap	-1498
सं	-1499
▁माओवादी	-1500
भु	-1501
हार	-1502
क्स	-1503
र्ट	-1504
▁month	-1505
ारे	-1506
काश	-1507
▁बजार	-1508
ality	-1509
▁gen	-1510
ट्ट	-1511
▁fam	-1512
ween	-1513
▁जे	-1514
्वास	-1515
▁9	-1516
▁trans	-1517
▁क्या	-1518
▁न्य	-1519
ठा	-1520
▁पत्र	-1521
व्य	-1522
द्धि	-1523
▁sit	-1524
ret	-1525
▁world	-1526
▁des	-1527
▁८	-1528
नुहुन्छ	-1529
▁percent	-1530
▁ret	-1531
▁dep	-1532
ily	-1533
▁land	-1534
▁between	-1535
अनुसार	-1536
▁तय	-1537
▁how	-1538
▁बम	-1539
loy	-1540
▁want	-1541
▁प्रधान	-1542
भिन्न	-1543
▁बाल	-1544
▁ob	-1545
ty	-1546
▁Chin	-1547
धन	-1548
roup	-1549
▁ac	-1550
▁hand	-1551
सु	-1552
वेदन	-1553
रोध	-1554
▁समस्या	-1555
▁बी	-1556
मै	-1557
▁जना	-1558
▁before	-1559
ries	-1560
▁med	-1561
chool	-1562
urn	-1563
भित्र	-1564
नुहोस्	-1565
min	-1566
▁उल्	-1567
▁रे	-1568
icip	-1569
▁know	-1570
ters	-1571
वै	-1572
ork	-1573
▁महिना	-1574
▁अझ	-1575
▁यसले	-1576
बीच	-1577
▁ph	-1578
▁sm	-1579
▁And	-1580
▁For	-1581
▁जब	-1582
द्या	-1583
▁स्थि	-1584
ural	-1585
oh	-1586
त्या	-1587
▁डा	-1588
vent	-1589
▁मौ	-1590
▁गर्नुपर्	-1591
ered	-1592
blem	-1593
ection	-1594
iew	-1595
हरुले	-1596
▁सम्झ	-1597
▁set	-1598
▁भाग	-1599
▁leaders	-1600
▁main	-1601
ible	-1602
ोजिम	-1603
दो	-1604
▁Kath	-1605
▁समूह	-1606
▁कर्म	-1607
टन	-1608
ual	-1609
प्ता	-1610
▁6	-1611
▁because	-1612
▁बै	-1613
▁विभिन्न	-1614
▁does	-1615
▁खे	-1616
hen	-1617
▁found	-1618
पो	-1619
ific	-1620
andu	-1621
▁आइ	-1622
▁अधिकार	-1623
▁problem	-1624
▁market	-1625
▁cr	-1626
एन	-1627
▁car	-1628
मध्ये	-1629
▁सुरक्षा	-1630
▁place	-1631
▁फो	-1632
▁ins	-1633
▁long	-1634
▁move	-1635
राष्ट	-1636
▁अब	-1637
टे	-1638
mandu	-1639
▁जसले	-1640
▁पछि	-1641
▁कृ	-1642
▁where	-1643
▁hel	-1644
▁Kathmandu	-1645
▁Ar	-1646
▁pri	-1647
uss	-1648
णय	-1649
▁law	-1650
हरूका	-1651
रेको	-1652
चारी	-1653
▁ed	-1654
▁क्षेत्रमा	-1655
arly	-1656
▁अर्थ	-1657
तर	-1658
▁$	-1659
▁just	-1660
थिक	-1661
▁due	-1662
▁giv	-1663
▁report	-1664
▁After	-1665
रले	-1666
▁स्प	-1667
xt	-1668
conom	-1669
▁निर्णय	-1670
▁उपल	-1671
▁conc	-1672
app	-1673
▁conf	-1674
anc	-1675
stem	-1676
▁way	-1677
ीत	-1678
▁Re	-1679
▁New	-1680
▁पार	-1681
ission	-1682
जु	-1683
▁आर्थिक	-1684
पुर	-1685
▁num	-1686
▁open	-1687
▁oper	-1688
▁शक्ति	-1689
▁most	-1690
▁inform	-1691
▁est	-1692
▁जुन	-1693
arli	-1694
▁लगानी	-1695
▁चु	-1696
▁आफू	-1697
ल्य	-1698
विधान	-1699
कको	-1700
ness	-1701
▁अमेरिकी	-1702
▁राजा	-1703
▁inte	-1704
▁help	-1705
ung	-1706
▁Kh	-1707
▁emp	-1708
▁चार	-1709
▁power	-1710
▁including	-1711
▁लाग्	-1712
▁house	-1713
▁क्रम	-1714
▁four	-1715
▁pur	-1716
ared	-1717
▁समेत	-1718
▁विदेश	-1719
▁आएको	-1720
▁जनता	-1721
way	-1722
▁हामीले	-1723
olog	-1724
▁सम्प	-1725
aken	-1726
▁पी	-1727
दर्श	-1728
▁उच्च	-1729
▁साम	-1730
▁gr	-1731
▁कर्मचारी	-1732
▁कानु	-1733
▁However	-1734
▁टे	-1735
▁९	-1736
▁ऐ	-1737
▁संविधान	-1738
▁back	-1739
▁बैं	-1740
urity	-1741
उनु	-1742
▁direct	-1743
ished	-1744
ng	-1745
▁अनुस	-1746
णी	-1747
▁spec	-1748
▁उपलब्	-1749
वार	-1750
orn	-1751
दाय	-1752
ided	-1753
▁million	-1754
▁मन्त्र	-1755
ics	-1756
▁Mad	-1757
ल्लो	-1758
▁प्रया	-1759
तृ	-1760
▁आज	-1761
रुद्ध	-1762
▁high	-1763
▁diffe	-1764
▁डे	-1765
▁writ	-1766
▁own	-1767
tle	-1768
▁well	-1769
▁बस्	-1770
har	-1771
वरण	-1772
▁local	-1773
read	-1774
▁started	-1775
▁show	-1776
ody	-1777
ज्ञा	-1778
▁सके	-1779
▁बाँ	-1780
▁ter	-1781
▁काठमाडौं	-1782
▁police	-1783
▁fol	-1784
▁team	-1785
▁eff	-1786
▁end	-1787
▁import	-1788
▁Is	-1789
med	-1790
ck	-1791
▁business	-1792
ected	-1793
▁8	-1794
▁पक्ष	-1795
स्ताव	-1796
▁यस्तो	-1797
▁opp	-1798
▁बमोजिम	-1799
▁sur	-1800
ati	-1801
▁मुख्य	-1802
तिमा	-1803
▁during	-1804
▁प्रस्ताव	-1805
ee	-1806
▁fil	-1807
नुपर्छ	-1808
▁Mr	-1809
▁econom	-1810
▁system	-1811
▁rece	-1812
हिर	-1813
▁Ass	-1814
स्थ्य	-1815
▁दिने	-1816
▁गि	-1817
▁माग	-1818
ars	-1819
▁name	-1820
राज	-1821
▁look	-1822
▁डलर	-1823
ged	-1824
▁पहिले	-1825
▁women	-1826
र्थी	-1827
▁used	-1828
गो	-1829
▁then	-1830
ौँ	-1831
▁बेला	-1832
ानो	-1833
लले	-1834
▁थिएन	-1835
▁सर्व	-1836
म्भ	-1837
▁१०	-1838
▁सञ्चालन	-1839
esh	-1840
▁At	-1841
नामा	-1842
▁नी	-1843
र्ने	-1844
षा	-1845
▁अमेरिका	-1846
▁उत्पादन	-1847
▁str	-1848
▁परिवर्त	-1849
▁det	-1850
▁छि	-1851
ax	-1852
लियन	-1853
000	-1854
▁संयुक्त	-1855
▁You	-1856
uation	-1857
त्ता	-1858
▁run	-1859
▁शहर	-1860
लेख	-1861
ures	-1862
cess	-1863
▁prot	-1864
▁life	-1865
▁bel	-1866
ral	-1867
▁परिवार	-1868
▁week	-1869
▁उनीहरूले	-1870
oy	-1871
oint	-1872
ternational	-1873
कले	-1874
ुल	-1875
▁नेपालको	-1876
uthor	-1877
▁Con	-1878
▁कार	-1879
▁meeting	-1880
ration	-1881
▁school	-1882
▁constitution	-1883
▁गर्छ	-1884
द्योग	-1885
▁जारी	-1886
▁commun	-1887
▁घोष	-1888
az	-1889
▁Pol	-1890
▁पर्ने	-1891
▁area	-1892
▁group	-1893
..	-1894
▁पाइ	-1895
▁called	-1896
▁मूल्य	-1897
▁सबैभन्दा	-1898
▁Off	-1899
▁..	-1900
▁संर	-1901
▁मुल	-1902
▁vill	-1903
▁came	-1904
hi	-1905
▁प्रधानमन्त्री	-1906
ृत	-1907
▁level	-1908
▁ची	-1909
स्थित	-1910
दार	-1911
लिक	-1912
ृद्धि	-1913
ute	-1914
▁water	-1915
▁लक्ष	-1916
ised	-1917
▁पुर	-1918
▁आफ्	-1919
ya	-1920
▁नाग	-1921
▁प्रत्येक	-1922
▁उपलब्ध	-1923
▁प्रकाश	-1924
▁days	-1925
▁comple	-1926
der	-1927
gg	-1928
माले	-1929
▁भनि	-1930
▁head	-1931
▁दल	-1932
▁official	-1933
छा	-1934
▁सड	-1935
▁प्रजा	-1936
▁रुपमा	-1937
ेश्व	-1938
▁don	-1939
▁दृ	-1940
ourt	-1941
▁छु	-1942
▁children	-1943
▁म्या	-1944
▁भूमि	-1945
▁president	-1946
▁सक्ने	-1947
ंश	-1948
ची	-1949
▁plan	-1950
rol	-1951
▁पानी	-1952
,000	-1953
▁बुझ	-1954
▁स्वास्थ्य	-1955
▁जानकारी	-1956
▁निर्देश	-1957
▁संस्	-1958
सक्	-1959
▁lit	-1960
▁Prime	-1961
द्दा	-1962
oney	-1963
▁दक्ष	-1964
▁number	-1965
ants	-1966
▁cle	-1967
▁Rs	-1968
rat	-1969
न्दो	-1970
ैनिक	-1971
imes	-1972
▁यसलाई	-1973
▁national	-1974
▁without	-1975
▁mat	-1976
▁सार्व	-1977
कट	-1978
its	-1979
▁char	-1980
न्थ	-1981
▁अद	-1982
▁project	-1983
▁जीवन	-1984
▁गाउँ	-1985
▁पाँच	-1986
▁मुलुक	-1987
हरूसँग	-1988
▁नेपालमा	-1989
ason	-1990
लग	-1991
ices	-1992
▁Man	-1993
▁यहाँ	-1994
▁खो	-1995
ष्टि	-1996
▁Pro	-1997
▁फाइ	-1998
ush	-1999
▁vis	-2000
▁parties	-2001
▁become	-2002
osp	-2003
▁home	-2004
▁निय	-2005
▁here	-2006
ament	-2007
प्रभु	-2008
▁follow	-2009
▁घोषणा	-2010
राष्ट्रिय	-2011
▁त्यहाँ	-2012
▁प्रयास	-2013
▁त्यसपछि	-2014
▁यदि	-2015
नुपर्ने	-2016
▁वै	-2017
▁न्या	-2018
▁think	-2019
ety	-2020
▁pass	-2021
▁much	-2022
▁सम्भाव	-2023
▁taken	-2024
गाडि	-2025
वेश	-2026
▁त्यसैले	-2027
▁within	-2028
chn	-2029
▁नियम	-2030
▁ann	-2031
ocial	-2032
ron	-2033
oot	-2034
▁गर्नेछ	-2035
सकेको	-2036
▁नागरिक	-2037
▁छौं	-2038
▁समाज	-2039
▁मुद्दा	-2040
▁read	-2041
▁use	-2042
सिक	-2043
▁interest	-2044
▁see	-2045
▁Cong	-2046
माथि	-2047
ten	-2048
cept	-2049
▁Go	-2050
धे	-2051
बि	-2052
▁विद्यालय	-2053
▁परमप्रभु	-2054
struction	-2055
iel	-2056
तृत्व	-2057
▁अनुसन्ध	-2058
▁current	-2059
बु	-2060
▁०	-2061
▁परिवर्तन	-2062
सद	-2063
▁ser	-2064
▁security	-2065
ुरो	-2066
मको	-2067
resident	-2068
ममा	-2069
भर	-2070
▁road	-2071
▁तपाईं	-2072
जनिक	-2073
▁different	-2074
सर	-2075
न्व	-2076
▁health	-2077
▁bas	-2078
▁cor	-2079
विक	-2080
▁employ	-2081
▁support	-2082
▁अनुसन्धान	-2083
bers	-2084
दुर	-2085
▁थप	-2086
▁ऋ	-2087
▁another	-2088
▁Sp	-2089
▁प्रे	-2090
ues	-2091
▁ग्रा	-2092
▁परी	-2093
▁नेतृत्व	-2094
स्तार	-2095
▁election	-2096
▁given	-2097
यात	-2098
▁second	-2099
▁भन्छन्	-2100
▁ः	-2101
उँछ	-2102
▁seem	-2103
नाव	-2104
▁She	-2105
▁vari	-2106
ल्ड	-2107
यक	-2108
तामा	-2109
▁निकाय	-2110
▁situation	-2111
▁Congress	-2112
▁case	-2113
eep	-2114
विरुद्ध	-2115
▁दश	-2116
▁पटक	-2117
▁मन्त्रालय	-2118
▁बैठ	-2119
▁inter	-2120
uman	-2121
▁Bah	-2122
▁भेट	-2123
▁पे	-2124
▁company	-2125
▁विद्या	-2126
▁China	-2127
▁वास्त	-2128
धी	-2129
▁Ad	-2130
▁समु	-2131
▁टोली	-2132
▁though	-2133
▁Le	-2134
▁दिए	-2135
▁गरिरहेका	-2136
osed	-2137
▁lar	-2138
ived	-2139
▁process	-2140
▁camp	-2141
▁So	-2142
म्मे	-2143
▁प्रतिवेदन	-2144
▁भनेर	-2145
▁जु	-2146
राम	-2147
▁%	-2148
▁फर्	-2149
▁bank	-2150
ept	-2151
ali	-2152
▁हात	-2153
▁सार्वजनिक	-2154
▁अदाल	-2155
▁व्या	-2156
त्रा	-2157
▁उठ	-2158
्ले	-2159
▁निर्वा	-2160
ञ्ज	-2161
▁ve	-2162
▁down	-2163
ंक	-2164
चिव	-2165
▁आफ्ना	-2166
▁आन्दो	-2167
ner	-2168
▁अदालत	-2169
abl	-2170
▁कति	-2171
▁भ्रम	-2172
च्छ	-2173
▁five	-2174
▁six	-2175
▁gu	-2176
ried	-2177
▁poss	-2178
▁हजार	-2179
पनि	-2180
तिर	-2181
▁कसरी	-2182
illed	-2183
▁both	-2184
िएको	-2185
▁cre	-2186
▁भारतीय	-2187
▁prom	-2188
वारी	-2189
▁Sec	-2190
▁money	-2191
istry	-2192
नाले	-2193
इट	-2194
▁def	-2195
विधि	-2196
हरुलाई	-2197
▁fac	-2198
ained	-2199
▁Dh	-2200
▁००	-2201
▁fl	-2202
बर	-2203
used	-2204
▁टि	-2205
णाली	-2206
▁polic	-2207
▁ref	-2208
outh	-2209
▁टा	-2210
ized	-2211
क्रमण	-2212
▁आयोजना	-2213
▁सरकारी	-2214
augh	-2215
प्रति	-2216
rem	-2217
▁sign	-2218
▁contin	-2219
▁रहेका	-2220
▁तिनीहरू	-2221
▁विश्वास	-2222
ees	-2223
▁खर्च	-2224
ंग्रे	-2225
गायत	-2226
मिक	-2227
▁talk	-2228
▁बताउ	-2229
▁उद्योग	-2230
पु	-2231
▁countries	-2232
तो	-2233
▁भु	-2234
ird	-2235
▁करि	-2236
▁present	-2237
चित	-2238
▁Indian	-2239
ense	-2240
ोधन	-2241
▁अघि	-2242
▁उनलाई	-2243
▁foreign	-2244
▁issu	-2245
ature	-2246
▁थाले	-2247
▁demand	-2248
▁since	-2249
▁art	-2250
▁10	-2251
▁थाहा	-2252
काल	-2253
▁विभाग	-2254
ention	-2255
▁माथि	-2256
ोट	-2257
ering	-2258
▁दक्षि	-2259
▁ठाउँ	-2260
कृति	-2261
▁बिक	-2262
▁बस	-2263
▁ev	-2264
▁king	-2265
▁देखिन्छ	-2266
▁शिक्षा	-2267
pl	-2268
▁air	-2269
▁educ	-2270
▁post	-2271
▁पुनर्	-2272
्यु	-2273
▁democ	-2274
eth	-2275
▁विद्यार्थी	-2276
lement	-2277
▁Sub	-2278
▁तो	-2279
▁पै	-2280
▁बाटो	-2281
▁नीति	-2282
▁according	-2283
गर	-2284
▁परमेश्व	-2285
▁President	-2286
▁अन्तर्राष्ट्रिय	-2287
▁win	-2288
▁पढ	-2289
▁ext	-2290
वक	-2291
ular	-2292
▁अझै	-2293
▁अलि	-2294
▁चौ	-2295
ग्रह	-2296
हादुर	-2297
▁पर्य	-2298
▁जस्तै	-2299
land	-2300
▁adv	-2301
ination	-2302
▁office	-2303
▁सकिन्छ	-2304
ves	-2305
adur	-2306
डे	-2307
▁दुवै	-2308
ages	-2309
▁inf	-2310
▁mil	-2311
▁...	-2312
mit	-2313
▁इन्	-2314
म्बर	-2315
▁requ	-2316
जो	-2317
▁family	-2318
▁going	-2319
ale	-2320
्टा	-2321
परि	-2322
▁prop	-2323
ption	-2324
▁still	-2325
▁ask	-2326
▁दिएको	-2327
ug	-2328
ene	-2329
▁आँ	-2330
निधि	-2331
▁press	-2332
ivers	-2333
▁ful	-2334
▁indust	-2335
एपछि	-2336
▁prep	-2337
▁कानुन	-2338
▁Act	-2339
▁बने	-2340
▁body	-2341
▁service	-2342
▁प्रमाण	-2343
▁छोरा	-2344
▁उपा	-2345
▁राष्ट्रपति	-2346
▁--	-2347
▁लामो	-2348
ts	-2349
▁१५	-2350
धारण	-2351
artment	-2352
▁Bahadur	-2353
eric	-2354
stand	-2355
ृत्य	-2356
▁sect	-2357
▁committee	-2358
▁अनुसार	-2359
▁told	-2360
alf	-2361
▁When	-2362
गम	-2363
▁अध्ययन	-2364
▁०००	-2365
ँदा	-2366
बल	-2367
com	-2368
▁Maoists	-2369
▁Fr	-2370
▁घटना	-2371
ield	-2372
▁ट्र	-2373
▁various	-2374
▁सम्बन्धित	-2375
▁उल्लेख	-2376
▁elect	-2377
my	-2378
urs	-2379
riend	-2380
ple	-2381
▁village	-2382
▁निम्	-2383
▁सर्	-2384
▁war	-2385
imil	-2386
▁ते	-2387
▁Mah	-2388
rying	-2389
uk	-2390
▁social	-2391
▁अफ	-2392
ient	-2393
▁सन्द	-2394
▁build	-2395
▁pay	-2396
पालिका	-2397
▁point	-2398
▁मानव	-2399
▁Raj	-2400
ines	-2401
iving	-2402
▁अन्त्य	-2403
▁aff	-2404
cil	-2405
▁establ	-2406
कम	-2407
ired	-2408
नेट	-2409
▁पूर्ण	-2410
▁discuss	-2411
▁कर	-2412
▁वे	-2413
▁युवा	-2414
▁concer	-2415
▁today	-2416
not	-2417
▁old	-2418
▁left	-2419
▁information	-2420
▁२०१	-2421
श्चित	-2422
▁अस्प	-2423
▁activ	-2424
पक्ष	-2425
▁बाहिर	-2426
▁कर्	-2427
gy	-2428
▁सूचना	-2429
शु	-2430
▁भ्रमण	-2431
ote	-2432
ll	-2433
▁To	-2434
▁भइरहेको	-2435
षण	-2436
▁सामान्य	-2437
▁गरिरहेको	-2438
▁techn	-2439
लब	-2440
eration	-2441
ana	-2442
retary	-2443
▁आयोग	-2444
ठन	-2445
ior	-2446
▁बच	-2447
▁around	-2448
वाह	-2449
▁che	-2450
▁give	-2451
▁११	-2452
▁श्रे	-2453
self	-2454
तर्फ	-2455
▁पूरा	-2456
लगायत	-2457
▁स्पष्ट	-2458
iod	-2459
ience	-2460
▁Te	-2461
▁God	-2462
▁news	-2463
ल्न	-2464
▁कठ	-2465
्याल	-2466
फो	-2467
ember	-2468
एस	-2469
▁city	-2470
▁लु	-2471
▁working	-2472
▁went	-2473
▁What	-2474
▁Committee	-2475
ency	-2476
▁जंग	-2477
▁author	-2478
ून	-2479
उँछन्	-2480
▁सभा	-2481
▁Police	-2482
ourn	-2483
▁राख्	-2484
▁करिब	-2485
▁सफल	-2486
▁सामाजिक	-2487
▁fact	-2488
here	-2489
▁mod	-2490
क्षित	-2491
▁That	-2492
ling	-2493
त्री	-2494
▁National	-2495
यान	-2496
▁क्र	-2497
▁१२	-2498
▁नियन्त्र	-2499
osition	-2500
▁प्रक्रिया	-2501
भने	-2502
▁प्रणाली	-2503
▁प्रतिनिधि	-2504
ional	-2505
▁Americ	-2506
▁लोक	-2507
सँगै	-2508
▁United	-2509
na	-2510
सका	-2511
ajor	-2512
▁Tr	-2513
por	-2514
▁अन्ति	-2515
▁pop	-2516
▁विरोध	-2517
▁months	-2518
▁उत्तर	-2519
arliament	-2520
▁बनाउन	-2521
ीर	-2522
भव	-2523
▁बिक्री	-2524
▁दोस्रो	-2525
▁हुनु	-2526
▁saying	-2527
ुर्ुर्	-2528
ecess	-2529
▁bring	-2530
▁जन्	-2531
▁प्रशा	-2532
स्क	-2533
▁अन	-2534
▁स्थापना	-2535
▁स्वी	-2536
earch	-2537
▁किनभने	-2538
▁सोच	-2539
▁beg	-2540
▁compet	-2541
▁योग	-2542
▁सडक	-2543
▁आफ्नै	-2544
▁चला	-2545
▁स्ट	-2546
oard	-2547
▁मानिसहरू	-2548
▁प्रदर्श	-2549
▁things	-2550
▁भन्दा	-2551
esp	-2552
ately	-2553
पे	-2554
ालिका	-2555
▁belie	-2556
ल्ने	-2557
गरी	-2558
▁eas	-2559
▁big	-2560
▁held	-2561
aut	-2562
▁तयार	-2563
▁गर्नुभयो	-2564
▁आएका	-2565
डियो	-2566
▁Madhes	-2567
्रोत	-2568
duct	-2569
▁stru	-2570
▁पर्छ	-2571
▁द्व	-2572
▁rights	-2573
बद्ध	-2574
▁done	-2575
ys	-2576
▁view	-2577
ल्प	-2578
▁Now	-2579
▁आरो	-2580
विद्य	-2581
▁राम	-2582
▁मध्य	-2583
▁ago	-2584
काली	-2585
▁अस्पता	-2586
▁व्यवसायी	-2587
▁नगर	-2588
▁पश्च	-2589
▁अनुमति	-2590
▁able	-2591
ociety	-2592
▁दक्षिण	-2593
द्द	-2594
तिहा	-2595
▁हप्ता	-2596
▁लक्ष्य	-2597
fic	-2598
▁उनका	-2599
जस्ता	-2600
▁युद्ध	-2601
▁विचार	-2602
▁implement	-2603
▁मृत्य	-2604
▁general	-2605
▁देखा	-2606
ets	-2607
▁trad	-2608
▁Dep	-2609
ala	-2610
▁US	-2611
▁period	-2612
▁past	-2613
▁let	-2614
▁सिर्	-2615
▁Nepalese	-2616
क्षक	-2617
ms	-2618
▁यसै	-2619
▁शान्ति	-2620
▁Ram	-2621
▁परे	-2622
▁Cl	-2623
▁रुप	-2624
ached	-2625
resent	-2626
▁गण	-2627
iron	-2628
▁मन्त्री	-2629
ified	-2630
▁क्रममा	-2631
▁prof	-2632
निर्	-2633
att	-2634
▁अवस्थामा	-2635
▁game	-2636
▁cannot	-2637
▁stop	-2638
ouncil	-2639
▁men	-2640
▁बैंक	-2641
ani	-2642
ML	-2643
▁कांग्रे	-2644
▁मृत्यु	-2645
eng	-2646
sue	-2647
चित्र	-2648
▁औं	-2649
▁ऊ	-2650
▁सुधार	-2651
ins	-2652
▁अगाडि	-2653
▁अन्तिम	-2654
▁प्रश्न	-2655
▁न्यु	-2656
▁पद	-2657
सलाई	-2658
▁नो	-2659
▁विदेशी	-2660
arty	-2661
▁major	-2662
▁action	-2663
▁book	-2664
▁हुँदा	-2665
▁international	-2666
pur	-2667
▁mar	-2668
▁रोज	-2669
ेद	-2670
▁स्वतन्त्र	-2671
लु	-2672
▁समयमा	-2673
▁फेरि	-2674
minist	-2675
कृत	-2676
▁Dist	-2677
▁मत	-2678
▁शु	-2679
ibility	-2680
aim	-2681
▁तिन	-2682
▁few	-2683
els	-2684
▁बहु	-2685
▁recent	-2686
सित	-2687
ases	-2688
ology	-2689
▁विस्तार	-2690
समे	-2691
बहादुर	-2692
▁फा	-2693
▁निकै	-2694
anch	-2695
▁rest	-2696
एल	-2697
▁sk	-2698
▁leg	-2699
▁great	-2700
▁val	-2701
▁समावेश	-2702
▁सङ्	-2703
▁लिन	-2704
ining	-2705
▁सय	-2706
▁कला	-2707
▁बढ्	-2708
ढा	-2709
ancial	-2710
कर्	-2711
नुभएको	-2712
▁leader	-2713
ize	-2714
▁Bank	-2715
▁नियन्त्रण	-2716
▁सक्छन्	-2717
▁rul	-2718
▁Ex	-2719
rence	-2720
▁लाख	-2721
pr	-2722
▁lo	-2723
▁स्रोत	-2724
ually	-2725
▁must	-2726
▁बारे	-2727
▁खेला	-2728
समेत	-2729
▁former	-2730
▁दर	-2731
ेक्षा	-2732
▁small	-2733
▁quest	-2734
▁सिर्जना	-2735
थे	-2736
▁av	-2737
▁tour	-2738
▁som	-2739
▁छुट	-2740
चन	-2741
ल्यान्ड	-2742
▁beh	-2743
aring	-2744
▁भाषा	-2745
▁put	-2746
▁making	-2747
▁equ	-2748
▁next	-2749
▁चल	-2750
▁son	-2751
▁फिल्	-2752
▁human	-2753
▁respons	-2754
▁cult	-2755
▁वस्तु	-2756
इक	-2757
▁आदेश	-2758
▁संग	-2759
▁रकम	-2760
▁Lord	-2761
▁ऋण	-2762
डान	-2763
▁प्रकार	-2764
मार	-2765
▁change	-2766
▁भएपछि	-2767
जस्तो	-2768
▁agree	-2769
▁गर्द	-2770
ustom	-2771
▁issue	-2772
▁grow	-2773
apa	-2774
▁far	-2775
▁सैनिक	-2776
▁छैनन्	-2777
▁important	-2778
रह	-2779
▁संरक्षण	-2780
सक	-2781
▁समाचार	-2782
▁त्यस्तो	-2783
▁भो	-2784
▁movement	-2785
ising	-2786
▁food	-2787
▁allow	-2788
▁Sc	-2789
ospital	-2790
▁seen	-2791
line	-2792
विधा	-2793
▁friend	-2794
▁took	-2795
▁visit	-2796
▁Sing	-2797
▁near	-2798
ured	-2799
▁stand	-2800
year	-2801
ressed	-2802
▁उद्	-2803
▁कार्या	-2804
▁छल	-2805
▁young	-2806
▁एन	-2807
▁Z	-2808
ying	-2809
▁spe	-2810
▁bro	-2811
न्ने	-2812
▁जहाँ	-2813
▁ब्या	-2814
▁capital	-2815
ecut	-2816
▁peace	-2817
▁Jan	-2818
▁list	-2819
▁Office	-2820
▁बताउनुभयो	-2821
▁result	-2822
▁special	-2823
▁District	-2824
▁वार्ता	-2825
▁control	-2826
racy	-2827
▁hist	-2828
angu	-2829
▁Mar	-2830
▁policy	-2831
▁मिलियन	-2832
adi	-2833
ुवा	-2834
▁Ab	-2835
र्स	-2836
▁स्थिति	-2837
▁व्यापार	-2838
▁पुस्त	-2839
हेक	-2840
▁भन्दै	-2841
▁among	-2842
▁व्यवस्थापन	-2843
▁sent	-2844
▁Mon	-2845
▁particip	-2846
▁औष	-2847
ारि	-2848
ph	-2849
▁छलफल	-2850
ains	-2851
▁खेलाडी	-2852
▁Maoist	-2853
दू	-2854
▁ऐन	-2855
▁economic	-2856
▁पृ	-2857
▁एमाले	-2858
▁minister	-2859
स्व	-2860
कर्ष	-2861
▁decision	-2862
▁priv	-2863
▁received	-2864
▁officials	-2865
न्वयन	-2866
▁ce	-2867
▁Pe	-2868
ecessary	-2869
▁No	-2870
▁All	-2871
▁तत्	-2872
रिद	-2873
ames	-2874
▁201	-2875
▁dra	-2876
▁जंगली	-2877
▁हिं	-2878
▁बलि	-2879
▁उपचार	-2880
▁members	-2881
दैनन्	-2882
▁अनुभ	-2883
▁वर्ग	-2884
▁वरि	-2885
▁Cent	-2886
▁विक	-2887
▁उक्त	-2888
▁Ministry	-2889
▁mother	-2890
▁एव	-2891
arth	-2892
▁increased	-2893
▁class	-2894
तिय	-2895
▁अति	-2896
less	-2897
▁keep	-2898
▁gre	-2899
▁कार्	-2900
ata	-2901
▁large	-2902
▁आन्दोलन	-2903
ources	-2904
▁सिं	-2905
▁पैसा	-2906
olved	-2907
▁यति	-2908
ब्द	-2909
▁mov	-2910
rought	-2911
▁order	-2912
▁प्रो	-2913
▁पठ	-2914
▁उनीहरूको	-2915
▁भएर	-2916
▁Commission	-2917
thing	-2918
पित	-2919
इन्	-2920
idd	-2921
▁sector	-2922
▁15	-2923
▁सम्झौ	-2924
atives	-2925
▁society	-2926
▁Rep	-2927
▁सेना	-2928
▁understand	-2929
▁father	-2930
▁attack	-2931
▁सम्भावना	-2932
एम	-2933
orts	-2934
▁construction	-2935
▁rele	-2936
▁कार्यान्वयन	-2937
▁del	-2938
वटा	-2939
ways	-2940
▁जीव	-2941
igation	-2942
▁नजिक	-2943
▁बज	-2944
▁lack	-2945
▁treat	-2946
ousand	-2947
medi	-2948
▁each	-2949
▁top	-2950
ined	-2951
hic	-2952
inc	-2953
झा	-2954
itiz	-2955
olution	-2956
उँदै	-2957
▁member	-2958
▁निजी	-2959
▁reached	-2960
▁सात	-2961
हान	-2962
▁Develop	-2963
ley	-2964
ortun	-2965
▁आई	-2966
तम	-2967
emb	-2968
राई	-2969
▁cond	-2970
कालीन	-2971
▁vict	-2972
▁education	-2973
▁न्याय	-2974
▁लिएर	-2975
▁Me	-2976
▁आक्रमण	-2977
पूर्वक	-2978
ौती	-2979
▁cert	-2980
▁वृद्धि	-2981
▁His	-2982
▁खरिद	-2983
▁गएको	-2984
षद्	-2985
▁proper	-2986
▁पुर्या	-2987
लग्न	-2988
▁met	-2989
▁With	-2990
▁बारेमा	-2991
▁फुट	-2992
▁वाता	-2993
ँदै	-2994
थ्यो	-2995
▁सहमति	-2996
▁आदि	-2997
▁१८	-2998
▁claim	-2999
▁त्यही	-3000
leg	-3001
▁court	-3002
मेल	-3003
unicip	-3004
▁बनाउने	-3005
▁नहु	-3006
arn	-3007
amed	-3008
नाइ	-3009
▁chang	-3010
▁सीमा	-3011
though	-3012
ँड	-3013
▁announ	-3014
▁दर्ता	-3015
प्प	-3016
▁सुविधा	-3017
ग्री	-3018
▁गरिएका	-3019
ौड	-3020
▁वातावरण	-3021
ially	-3022
ror	-3023
▁basis	-3024
▁यात्रा	-3025
ton	-3026
asing	-3027
▁langu	-3028
▁अधिक	-3029
ociation	-3030
▁आत्	-3031
▁अवधि	-3032
▁बालब	-3033
▁३०	-3034
▁विषयमा	-3035
▁युरो	-3036
तार	-3037
▁संसद	-3038
▁समाधान	-3039
▁Government	-3040
rap	-3041
ष्य	-3042
aid	-3043
akes	-3044
▁Development	-3045
▁financial	-3046
▁Gen	-3047
ते	-3048
▁env	-3049
ending	-3050
▁ri	-3051
▁दू	-3052
ivil	-3053
▁जाने	-3054
▁suff	-3055
▁पोख	-3056
ready	-3057
▁plac	-3058
▁स्त	-3059
▁unt	-3060
ccess	-3061
▁night	-3062
ल्क	-3063
agement	-3064
▁अपेक्षा	-3065
▁गरिन्छ	-3066
▁संलग्न	-3067
▁तपाईँले	-3068
▁—	-3069
धानी	-3070
▁श्रेष्ठ	-3071
▁amount	-3072
प्ट	-3073
▁pract	-3074
भू	-3075
▁Even	-3076
▁अभियान	-3077
▁कथा	-3078
लाइ	-3079
▁सचिव	-3080
aving	-3081
दे	-3082
▁areas	-3083
▁१६	-3084
▁students	-3085
▁tax	-3086
▁हुँदैन	-3087
▁तह	-3088
▁कृष	-3089
ball	-3090
pect	-3091
▁lot	-3092
▁धा	-3093
▁ज्ञ	-3094
▁पुग्	-3095
omp	-3096
▁strong	-3097
aign	-3098
▁appro	-3099
ides	-3100
▁chief	-3101
▁brought	-3102
▁arrest	-3103
▁increase	-3104
▁हेर्	-3105
▁बालबालिका	-3106
्रु	-3107
▁संख्या	-3108
▁sing	-3109
▁care	-3110
▁गर्नुपर्छ	-3111
▁Then	-3112
▁Pl	-3113
्रष्ट	-3114
▁already	-3115
urned	-3116
▁dest	-3117
घा	-3118
▁fail	-3119
▁चिनि	-3120
नका	-3121
▁समुदाय	-3122
ront	-3123
▁rev	-3124
▁provide	-3125
▁Shrest	-3126
▁फेला	-3127
तः	-3128
▁राख्न	-3129
रिया	-3130
▁Shrestha	-3131
ironment	-3132
▁ताल	-3133
▁spok	-3134
योजना	-3135
▁कार्यकर्ता	-3136
ator	-3137
iol	-3138
▁Dr	-3139
िकि	-3140
▁चलचित्र	-3141
▁कोष	-3142
▁बीच	-3143
भरि	-3144
शील	-3145
ically	-3146
▁निर	-3147
ैँ	-3148
▁आशा	-3149
▁tre	-3150
ficult	-3151
lood	-3152
न्त्रिक	-3153
डित	-3154
▁पाल	-3155
▁चे	-3156
▁Wor	-3157
हरुमा	-3158
द्र	-3159
▁विगत	-3160
▁बल	-3161
▁Q	-3162
▁साथै	-3163
▁necessary	-3164
▁ठूला	-3165
▁possible	-3166
idered	-3167
▁वित्त	-3168
▁Council	-3169
abab	-3170
▁प्रविधि	-3171
▁difficult	-3172
यौं	-3173
▁custom	-3174
आई	-3175
ored	-3176
▁चाहि	-3177
पटक	-3178
▁field	-3179
क्र	-3180
▁problems	-3181
▁प्या	-3182
iversity	-3183
र्गत	-3184
▁चुनाव	-3185
ष्ण	-3186
▁Pras	-3187
▁Pra	-3188
भो	-3189
र्फत	-3190
▁half	-3191
▁घण	-3192
▁अरू	-3193
▁दिइ	-3194
▁relations	-3195
▁bre	-3196
▁भर्	-3197
▁संघीय	-3198
▁साल	-3199
▁केन्द्रीय	-3200
▁democracy	-3201
▁संश	-3202
▁चाल	-3203
अन्त	-3204
▁शब्द	-3205
▁considered	-3206
yp	-3207
▁journ	-3208
नेछन्	-3209
▁औषधि	-3210
tain	-3211
साद	-3212
▁लागेको	-3213
विद्यालय	-3214
ल्यै	-3215
▁शै	-3216
▁12	-3217
क्न	-3218
iday	-3219
ison	-3220
ier	-3221
▁prev	-3222
▁त्र	-3223
ृत्ति	-3224
▁UML	-3225
▁happ	-3226
▁साथी	-3227
▁वर्षको	-3228
▁success	-3229
▁सर्वो	-3230
▁mor	-3231
▁product	-3232
▁आधारमा	-3233
नन्	-3234
▁init	-3235
▁दुर्	-3236
▁पाठ	-3237
▁थाल	-3238
▁रोग	-3239
▁Be	-3240
▁living	-3241
▁नभएको	-3242
▁farm	-3243
शि	-3244
▁फर	-3245
▁campaign	-3246
ury	-3247
▁mus	-3248
क्षम	-3249
त्वपूर्ण	-3250
▁World	-3251
▁wr	-3252
न्तरण	-3253
▁ur	-3254
▁addition	-3255
चाल	-3256
▁find	-3257
nes	-3258
▁प्रदान	-3259
▁Kum	-3260
▁बाँकी	-3261
▁coming	-3262
▁statement	-3263
▁कारो	-3264
ratic	-3265
▁तथ	-3266
▁away	-3267
अन्तर्गत	-3268
▁विश्वविद्यालय	-3269
▁जल	-3270
▁अभाव	-3271
▁भूमिका	-3272
▁pursu	-3273
संग	-3274
ving	-3275
airman	-3276
▁घा	-3277
▁exper	-3278
▁inst	-3279
त्सा	-3280
▁film	-3281
▁आउने	-3282
▁सरकारको	-3283
लामा	-3284
सम	-3285
▁त्यसको	-3286
▁सम्पत्ति	-3287
तान्त्रिक	-3288
▁जित	-3289
▁प्रहरीले	-3290
लित	-3291
रोड	-3292
▁means	-3293
संघ	-3294
imal	-3295
▁milit	-3296
▁too	-3297
र्ज	-3298
▁लो	-3299
orth	-3300
ederal	-3301
▁आरोप	-3302
▁consum	-3303
▁word	-3304
▁Sat	-3305
▁परेको	-3306
यी	-3307
idence	-3308
छाडि	-3309
र्चा	-3310
▁others	-3311
गामी	-3312
लेको	-3313
▁Se	-3314
ubl	-3315
▁perform	-3316
rael	-3317
▁कम्	-3318
▁Prasad	-3319
▁sal	-3320
▁थापा	-3321
▁परिणा	-3322
द्दत	-3323
ढी	-3324
▁बतायो	-3325
▁Simil	-3326
साथ	-3327
▁impro	-3328
▁Some	-3329
▁अभ	-3330
ended	-3331
चान	-3332
▁मध	-3333
▁मद्दत	-3334
▁thousand	-3335
▁विज्ञ	-3336
▁represent	-3337
▁सक	-3338
ुरुष	-3339
▁hold	-3340
▁Oli	-3341
▁गर्छन्	-3342
▁workers	-3343
▁कुल	-3344
▁Israel	-3345
▁हालै	-3346
▁कान	-3347
▁immedi	-3348
▁effect	-3349
ग्गा	-3350
▁fund	-3351
▁private	-3352
▁तिनीहरूले	-3353
▁हुँदै	-3354
▁भवि	-3355
▁cost	-3356
▁नगरपालिका	-3357
▁why	-3358
▁सहा	-3359
▁ide	-3360
ger	-3361
ilities	-3362
काले	-3363
▁community	-3364
▁times	-3365
▁feel	-3366
▁चिन्	-3367
▁reach	-3368
▁हामीलाई	-3369
ization	-3370
डिया	-3371
▁free	-3372
▁citiz	-3373
▁जिम्मे	-3374
▁occ	-3375
crib	-3376
ump	-3377
▁services	-3378
भे	-3379
▁Brit	-3380
▁organization	-3381
▁real	-3382
▁media	-3383
▁लाग्छ	-3384
▁२५	-3385
▁became	-3386
▁Similarly	-3387
▁role	-3388
देश्य	-3389
▁यस्ता	-3390
▁प्रजातन्त्र	-3391
▁viol	-3392
▁third	-3393
▁test	-3394
▁added	-3395
▁along	-3396
▁प्रच	-3397
▁ब्रि	-3398
▁परिणाम	-3399
ृह	-3400
ards	-3401
▁अनुभव	-3402
▁ओली	-3403
▁गर्दछन्	-3404
▁कारोबार	-3405
ट्	-3406
ule	-3407
tt	-3408
arent	-3409
▁ध्यान	-3410
ulation	-3411
▁पुरुष	-3412
▁live	-3413
पर	-3414
▁प्रवेश	-3415
न्दि	-3416
▁until	-3417
arma	-3418
▁language	-3419
▁भविष्य	-3420
▁nation	-3421
▁hap	-3422
▁आमा	-3423
▁पदा	-3424
▁never	-3425
▁Thapa	-3426
▁सम्झौता	-3427
▁earth	-3428
▁जग्गा	-3429
▁redu	-3430
▁आवा	-3431
▁१४	-3432
▁डो	-3433
न्दु	-3434
▁भण्ड	-3435
▁always	-3436
▁करोड	-3437
भी	-3438
▁भएकाले	-3439
न्तु	-3440
▁vehic	-3441
▁death	-3442
▁नदी	-3443
▁समाप्त	-3444
▁सङ्ग	-3445
▁seems	-3446
▁fut	-3447
sh	-3448
▁forward	-3449
▁सां	-3450
▁दाबी	-3451
वल	-3452
ाउनु	-3453
टल	-3454
▁व्यापक	-3455
AN	-3456
▁administ	-3457
दिन	-3458
▁environment	-3459
aun	-3460
▁cut	-3461
सम्बन्ध	-3462
▁छन	-3463
▁परियोजना	-3464
हिल्यै	-3465
▁आवश्यकता	-3466
▁गीत	-3467
▁less	-3468
तियार	-3469
▁तेस्रो	-3470
▁little	-3471
▁इरा	-3472
▁गति	-3473
▁crit	-3474
agar	-3475
दाता	-3476
aud	-3477
▁side	-3478
side	-3479
isc	-3480
▁clear	-3481
ference	-3482
▁tem	-3483
cture	-3484
सहित	-3485
▁taking	-3486
▁publ	-3487
▁गरिने	-3488
▁पुरस्	-3489
▁विवरण	-3490
▁Association	-3491
rick	-3492
भागी	-3493
▁happen	-3494
▁Eng	-3495
▁निष्	-3496
▁सोम	-3497
undred	-3498
हाल	-3499
न्तर	-3500
▁div	-3501
▁killed	-3502
▁सम्पूर्ण	-3503
▁एवं	-3504
▁सूची	-3505
▁Ag	-3506
कृतिक	-3507
itive	-3508
▁प्रस्तु	-3509
▁गरेपछि	-3510
erc	-3511
▁11	-3512
▁institution	-3513
▁fall	-3514
▁dri	-3515
नो	-3516
▁प्रदर्शन	-3517
▁Sund	-3518
▁पत्रकार	-3519
▁inj	-3520
▁चरण	-3521
▁conduct	-3522
▁One	-3523
sel	-3524
▁भे	-3525
unicipality	-3526
▁यद्य	-3527
▁ident	-3528
▁पर्नेछ	-3529
mber	-3530
▁उसले	-3531
▁दी	-3532
बाही	-3533
▁उद्देश्य	-3534
▁best	-3535
▁opportun	-3536
र्ण	-3537
▁सहभागी	-3538
▁एस	-3539
▁दियो	-3540
ुक्र	-3541
▁विद्यु	-3542
म्रा	-3543
नीय	-3544
तिको	-3545
▁गुण	-3546
▁song	-3547
▁हस्ता	-3548
▁People	-3549
▁खास	-3550
▁Ph	-3551
▁billion	-3552
▁देशको	-3553
▁काग	-3554
▁Bar	-3555
▁निम्ति	-3556
▁जोड	-3557
▁पहा	-3558
र्जा	-3559
▁पार्न	-3560
▁१३	-3561
▁जिल्लामा	-3562
रामी	-3563
▁kind	-3564
▁इतिहा	-3565
▁foot	-3566
▁Sept	-3567
▁परीक्षण	-3568
▁अपरा	-3569
tal	-3570
▁sl	-3571
▁Eu	-3572
▁Department	-3573
▁कहिल्यै	-3574
action	-3575
▁pursuant	-3576
▁वित्तीय	-3577
्नु	-3578
▁चिकि	-3579
ti	-3580
....	-3581
ँदैन	-3582
▁short	-3583
▁yet	-3584
तीमा	-3585
▁South	-3586
▁later	-3587
▁condition	-3588
ारो	-3589
▁दृष्टि	-3590
▁कृषि	-3591
▁30	-3592
▁जस	-3593
go	-3594
ream	-3595
▁उत्पाद	-3596
▁निश्चित	-3597
ats	-3598
▁Ira	-3599
▁won	-3600
▁return	-3601
▁शुक्र	-3602
endra	-3603
order	-3604
▁असफल	-3605
umb	-3606
▁अन्तर	-3607
▁गोली	-3608
▁Therefore	-3609
▁Although	-3610
▁Chief	-3611
▁study	-3612
तरण	-3613
itor	-3614
▁मात्रै	-3615
▁रुपै	-3616
लै	-3617
▁तयारी	-3618
स्त्र	-3619
्याङ्क	-3620
vi	-3621
▁Iraq	-3622
▁Fore	-3623
ricult	-3624
istan	-3625
▁यद्यपि	-3626
▁खुला	-3627
डो	-3628
्ला	-3629
hy	-3630
oud	-3631
▁पुनः	-3632
▁समर्थ	-3633
ceed	-3634
▁भाव	-3635
▁General	-3636
▁उम	-3637
▁ब्रा	-3638
atch	-3639
▁record	-3640
lected	-3641
akh	-3642
▁पर्दछ	-3643
▁agreement	-3644
▁heart	-3645
र्भ	-3646
ama	-3647
tc	-3648
न्ज	-3649
▁गरिनेछ	-3650
▁कायम	-3651
▁following	-3652
थमिक	-3653
टै	-3654
▁deb	-3655
इरहेको	-3656
▁investment	-3657
व्याप	-3658
▁चीन	-3659
▁बोर्ड	-3660
▁question	-3661
▁distrib	-3662
▁दिएका	-3663
▁hop	-3664
पान	-3665
▁भुक्ता	-3666
struct	-3667
▁यसरी	-3668
र्तमान	-3669
▁future	-3670
anda	-3671
जित	-3672
▁गठन	-3673
▁fire	-3674
▁pain	-3675
▁घण्टा	-3676
▁May	-3677
▁प्राथमिक	-3678
iver	-3679
वमा	-3680
▁love	-3681
▁fun	-3682
isk	-3683
ched	-3684
▁कसैले	-3685
reed	-3686
द्धा	-3687
ls	-3688
किएको	-3689
▁States	-3690
ij	-3691
▁concerned	-3692
▁civil	-3693
aff	-3694
▁army	-3695
▁विवाद	-3696
न्टर	-3697
राब	-3698
▁Col	-3699
▁सेट	-3700
▁क्षम	-3701
▁bene	-3702
▁ey	-3703
▁issues	-3704
▁याद	-3705
▁गर्नुपर्ने	-3706
ait	-3707
ots	-3708
▁गाडी	-3709
ज्य	-3710
▁गै	-3711
▁hig	-3712
▁सानो	-3713
सम्बन्धी	-3714
ane	-3715
▁पीडित	-3716
▁central	-3717
ims	-3718
▁asked	-3719
हित्य	-3720
▁स्टे	-3721
▁सम्भव	-3722
▁2007	-3723
wards	-3724
iding	-3725
▁डी	-3726
▁१७	-3727
▁अस्वी	-3728
ges	-3729
ayan	-3730
▁पेश	-3731
इल	-3732
काअनुसार	-3733
क्क	-3734
▁स्क	-3735
▁trying	-3736
बाहेक	-3737
▁बजारमा	-3738
▁सम्पन्न	-3739
▁बुध	-3740
▁बस्ने	-3741
▁यही	-3742
▁Co	-3743
▁etc	-3744
rope	-3745
ross	-3746
▁घु	-3747
▁भुक्तानी	-3748
▁hour	-3749
▁assist	-3750
▁Friday	-3751
▁पछाडि	-3752
▁जनाएको	-3753
▁increasing	-3754
ैमा	-3755
▁कालो	-3756
embly	-3757
▁संशोधन	-3758
▁decl	-3759
श्र	-3760
▁sell	-3761
▁इस	-3762
▁dise	-3763
▁टेलि	-3764
न्दी	-3765
▁२००७	-3766
▁गुरु	-3767
▁बजेट	-3768
son	-3769
▁appear	-3770
▁16	-3771
▁My	-3772
▁कारबाही	-3773
▁sold	-3774
▁Monday	-3775
दर	-3776
▁तुल	-3777
प्रसाद	-3778
▁प्राय	-3779
▁Europe	-3780
▁जस्तो	-3781
▁मै	-3782
हरण	-3783
▁आगामी	-3784
▁deter	-3785
▁mot	-3786
war	-3787
▁लागू	-3788
▁Not	-3789
सक्ने	-3790
▁conn	-3791
▁हेर	-3792
▁मन्दि	-3793
▁वास्तविक	-3794
▁गम्भ	-3795
पको	-3796
gr	-3797
▁jud	-3798
▁कहिले	-3799
▁incident	-3800
▁गम्भीर	-3801
udget	-3802
स्पर्	-3803
▁कार्यक्रममा	-3804
▁निर्देशक	-3805
▁आफूलाई	-3806
▁died	-3807
ताका	-3808
▁seven	-3809
▁job	-3810
hu	-3811
▁मार्ग	-3812
ecutive	-3813
▁कै	-3814
▁प्रशि	-3815
arlier	-3816
निया	-3817
सिया	-3818
▁production	-3819
▁Wed	-3820
▁soon	-3821
▁competition	-3822
▁त्रि	-3823
▁ई	-3824
▁places	-3825
▁100	-3826
त्न	-3827
▁वन	-3828
द्रा	-3829
anies	-3830
ारम्भ	-3831
▁कोइ	-3832
ध्यक्ष	-3833
▁least	-3834
▁साहित्य	-3835
▁expl	-3836
▁price	-3837
uty	-3838
▁season	-3839
लेर	-3840
▁total	-3841
▁lim	-3842
▁देशमा	-3843
▁non	-3844
▁कल	-3845
▁तल	-3846
▁तरि	-3847
कन	-3848
▁whether	-3849
▁चयन	-3850
▁भनेको	-3851
▁प्रशासन	-3852
फि	-3853
▁Pok	-3854
▁industry	-3855
तमा	-3856
न्छु	-3857
▁अस्वीकार	-3858
▁दिनु	-3859
ony	-3860
arai	-3861
▁arr	-3862
▁bo	-3863
▁dr	-3864
▁वितरण	-3865
▁छोड	-3866
्यास	-3867
▁goods	-3868
▁प्रतिस्पर्	-3869
oice	-3870
▁Wednes	-3871
▁walk	-3872
▁सध	-3873
▁face	-3874
▁बन्न	-3875
▁होला	-3876
▁mount	-3877
▁खण्ड	-3878
▁Wednesday	-3879
▁military	-3880
▁Or	-3881
म्मा	-3882
▁leadership	-3883
▁वर्तमान	-3884
▁Singh	-3885
▁music	-3886
ask	-3887
▁सोमबार	-3888
▁sus	-3889
▁Bir	-3890
▁avail	-3891
▁reason	-3892
▁account	-3893
▁Su	-3894
▁शुक्रबार	-3895
पादन	-3896
▁Em	-3897
aged	-3898
▁mind	-3899
▁विमान	-3900
▁पाउ	-3901
selves	-3902
याप्त	-3903
ability	-3904
▁Sunday	-3905
▁बर्	-3906
▁बनेको	-3907
▁फिल्म	-3908
▁known	-3909
▁१९९	-3910
▁याता	-3911
टमा	-3912
epar	-3913
inal	-3914
हन	-3915
नाथ	-3916
▁फर्कि	-3917
▁पुस्तक	-3918
▁once	-3919
▁जनताको	-3920
▁पास	-3921
val	-3922
▁While	-3923
▁सिंह	-3924
ians	-3925
▁आठ	-3926
▁तापनि	-3927
▁Thurs	-3928
▁involved	-3929
तको	-3930
वर	-3931
▁पाउने	-3932
▁आइत	-3933
▁यातायात	-3934
वान	-3935
▁got	-3936
▁कसै	-3937
बे	-3938
▁सजि	-3939
▁शुरु	-3940
▁Yah	-3941
ware	-3942
▁ढा	-3943
▁शर्	-3944
▁Thursday	-3945
▁hundred	-3946
▁fav	-3947
▁लिने	-3948
▁५०	-3949
▁story	-3950
▁Tues	-3951
aper	-3952
▁प्रारम्भ	-3953
▁line	-3954
योजन	-3955
सिङ	-3956
▁dam	-3957
chie	-3958
▁पहिचान	-3959
▁politics	-3960
वासी	-3961
ival	-3962
▁brother	-3963
▁बुधबार	-3964
▁Tuesday	-3965
▁Secretary	-3966
▁मान्छ	-3967
▁stat	-3968
uck	-3969
▁संकट	-3970
▁फरक	-3971
▁liter	-3972
उँदा	-3973
▁Kumar	-3974
▁18	-3975
ern	-3976
▁ठाउँमा	-3977
ances	-3978
▁अधिकृत	-3979
▁budget	-3980
▁serious	-3981
च्चा	-3982
▁हत्या	-3983
▁यस्तै	-3984
▁ढु	-3985
ones	-3986
▁mess	-3987
▁दर्श	-3988
▁अत्य	-3989
गी	-3990
▁हरा	-3991
त्रु	-3992
म्परा	-3993
▁hous	-3994
इरहेका	-3995
▁अनुमान	-3996
सभा	-3997
▁सेयर	-3998
▁परिषद्	-3999
▁पूर्वा	-4000
oir	-4001
aly	-4002
rik	-4003
▁पश्चिम	-4004
▁सुरक्षित	-4005
▁written	-4006
▁typ	-4007
कारा	-4008
▁woman	-4009
श्	-4010
योगि	-4011
▁नेपालका	-4012
▁history	-4013
▁सामग्री	-4014
▁companies	-4015
सान	-4016
▁commit	-4017
hold	-4018
▁रोजग	-4019
▁फाइल	-4020
स्ती	-4021
▁daugh	-4022
aul	-4023
प्पणी	-4024
▁cour	-4025
▁hard	-4026
▁Yad	-4027
-1	-4028
▁compl	-4029
▁arrested	-4030
व्यापी	-4031
तया	-4032
▁aut	-4033
▁Moh	-4034
ara	-4035
▁परम्परा	-4036
bal	-4037
▁Party	-4038
▁महत्	-4039
▁treatment	-4040
rish	-4041
▁महसु	-4042
यल	-4043
▁विवाह	-4044
▁इस्रा	-4045
▁भित्र	-4046
▁थिएँ	-4047
amb	-4048
▁relig	-4049
▁कुरामा	-4050
▁Res	-4051
ocu	-4052
▁क्षति	-4053
▁separ	-4054
▁गते	-4055
▁कवि	-4056
pa	-4057
▁provided	-4058
arter	-4059
▁light	-4060
▁सञ्चार	-4061
▁neg	-4062
▁achie	-4063
▁tele	-4064
▁पर्यटक	-4065
▁profess	-4066
▁ठा	-4067
ternal	-4068
▁eng	-4069
लेज	-4070
▁गुमा	-4071
नाको	-4072
▁संक	-4073
▁lab	-4074
मले	-4075
DC	-4076
▁जति	-4077
▁activities	-4078
▁टिप्पणी	-4079
▁contract	-4080
fer	-4081
▁राजधानी	-4082
आर	-4083
▁अवसर	-4084
लबार	-4085
▁stay	-4086
▁Court	-4087
▁च्या	-4088
ped	-4089
हक	-4090
▁दबा	-4091
▁himself	-4092
▁कोठा	-4093
▁toget	-4094
▁submit	-4095
पोरे	-4096
▁आइतबार	-4097
▁together	-4098
▁भी	-4099
क्टर	-4100
▁tar	-4101
ograp	-4102
ताले	-4103
▁comes	-4104
▁full	-4105
▁अस्पताल	-4106
▁एजे	-4107
▁शनि	-4108
▁फै	-4109
▁फ्रा	-4110
ीक	-4111
uted	-4112
ध्या	-4113
▁संसार	-4114
▁hon	-4115
▁Chinese	-4116
गु	-4117
▁center	-4118
▁Yadav	-4119
▁नेपालले	-4120
▁बिरामी	-4121
▁अहिलेसम्म	-4122
▁क्लि	-4123
cribed	-4124
ःख	-4125
▁Reg	-4126
हीबार	-4127
▁चुन	-4128
केको	-4129
▁using	-4130
▁आग्रह	-4131
▁यसमा	-4132
▁American	-4133
णि	-4134
ेन	-4135
▁Dem	-4136
▁final	-4137
मित	-4138
▁lost	-4139
weh	-4140
▁raised	-4141
▁eat	-4142
ott	-4143
▁building	-4144
▁Yahweh	-4145
मत	-4146
▁sex	-4147
▁appoint	-4148
▁Sharma	-4149
▁क्लब	-4150
▁फर्क	-4151
▁बैठक	-4152
eal	-4153
ential	-4154
▁risk	-4155
ills	-4156
▁उदा	-4157
▁अग्र	-4158
▁यादव	-4159
▁ca	-4160
▁हरि	-4161
▁खाली	-4162
▁त्यति	-4163
▁training	-4164
gest	-4165
योर्क	-4166
▁आत	-4167
eb	-4168
▁adding	-4169
ran	-4170
▁गए	-4171
लाको	-4172
स्थापना	-4173
▁उमेर	-4174
पूर्ति	-4175
▁These	-4176
▁त्यस्तै	-4177
▁तब	-4178
▁प्रतिस्पर्धा	-4179
▁रेक	-4180
ead	-4181
work	-4182
▁आत्म	-4183
▁थु	-4184
कर्मी	-4185
ल्लाह	-4186
▁age	-4187
▁एका	-4188
▁दुःख	-4189
▁जोख	-4190
्राइ	-4191
▁matter	-4192
▁प्रस्तुत	-4193
▁गराउन	-4194
▁पुगेको	-4195
▁साझ	-4196
▁sol	-4197
सकेका	-4198
बेला	-4199
▁Comp	-4200
▁management	-4201
▁Pak	-4202
▁establish	-4203
▁चै	-4204
▁सौ	-4205
apan	-4206
▁प्रतिक्रिया	-4207
▁धर्म	-4208
▁सम्बन्धमा	-4209
▁गृह	-4210
गमन	-4211
▁सन्देश	-4212
▁hospital	-4213
▁जाँच	-4214
▁यसका	-4215
urther	-4216
▁Satur	-4217
▁निर्वाचन	-4218
▁प्रजातान्त्रिक	-4219
▁established	-4220
oura	-4221
किस्ता	-4222
▁decided	-4223
▁आफैं	-4224
▁199	-4225
▁Chand	-4226
hers	-4227
ina	-4228
▁एम	-4229
▁घरमा	-4230
▁tradition	-4231
▁net	-4232
▁Since	-4233
▁morning	-4234
▁शरी	-4235
बो	-4236
▁पछिल्लो	-4237
▁पुरानो	-4238
▁rate	-4239
▁यौ	-4240
▁trade	-4241
aster	-4242
▁available	-4243
aur	-4244
▁Af	-4245
▁बिहीबार	-4246
▁low	-4247
▁उनीहरू	-4248
▁share	-4249
▁consid	-4250
▁director	-4251
road	-4252
▁विज	-4253
▁Saturday	-4254
धु	-4255
▁citizens	-4256
रीको	-4257
▁जोखिम	-4258
केत	-4259
ober	-4260
▁बाध्य	-4261
▁leave	-4262
itation	-4263
▁परा	-4264
rug	-4265
ण्डा	-4266
enior	-4267
▁मान्य	-4268
▁forest	-4269
र्जन	-4270
PN	-4271
▁कार्यकारी	-4272
▁अरु	-4273
गे	-4274
▁dev	-4275
दानी	-4276
▁Bud	-4277
▁उपभो	-4278
रान	-4279
कामा	-4280
▁पुरस्कार	-4281
▁आँखा	-4282
▁पर्याप्त	-4283
▁King	-4284
ीकरण	-4285
▁लड	-4286
▁deal	-4287
▁immediately	-4288
▁accept	-4289
लम्ब	-4290
▁थप्	-4291
▁close	-4292
▁सुन	-4293
▁निरन्तर	-4294
▁dom	-4295
▁Cor	-4296
ething	-4297
▁हेर्न	-4298
▁हुनुहुन्छ	-4299
▁tell	-4300
▁व्यक्त	-4301
▁साँ	-4302
▁जन्म	-4303
▁प्रि	-4304
▁organized	-4305
फी	-4306
▁fight	-4307
▁docu	-4308
▁self	-4309
▁X	-4310
▁York	-4311
कारात्मक	-4312
▁everyone	-4313
▁Japan	-4314
▁तिनीहरूलाई	-4315
▁शाही	-4316
▁विश्ले	-4317
▁thing	-4318
▁ब्र	-4319
▁अग	-4320
▁अल	-4321
▁नारा	-4322
जक	-4323
▁हट	-4324
▁उसको	-4325
atural	-4326
फ्ट	-4327
▁gl	-4328
▁उनीहरूलाई	-4329
▁journal	-4330
▁गौ	-4331
▁region	-4332
▁propos	-4333
▁technology	-4334
cle	-4335
छु	-4336
▁हरे	-4337
▁न्युयोर्क	-4338
▁enc	-4339
▁mater	-4340
▁गैर	-4341
क्ने	-4342
▁श्र	-4343
▁पाकिस्ता	-4344
पानी	-4345
▁arri	-4346
▁remain	-4347
oved	-4348
▁पेट	-4349
▁sw	-4350
▁फ्या	-4351
▁आलो	-4352
▁gave	-4353
▁Par	-4354
▁बलियो	-4355
▁Fin	-4356
▁sat	-4357
▁मनो	-4358
▁hot	-4359
▁might	-4360
▁राख्ने	-4361
कला	-4362
▁ज्या	-4363
▁भाइ	-4364
▁श्रम	-4365
▁भ्रष्ट	-4366
▁प्रायः	-4367
▁vot	-4368
▁brok	-4369
▁हाम्रा	-4370
▁complete	-4371
जले	-4372
ल्ली	-4373
लत	-4374
▁अपराध	-4375
▁२१	-4376
▁रेकर्ड	-4377
राव	-4378
न्थ्यो	-4379
▁step	-4380
ggest	-4381
न्द्व	-4382
▁based	-4383
▁applic	-4384
जस्तै	-4385
▁पशु	-4386
▁mult	-4387
▁benef	-4388
▁डु	-4389
प्टे	-4390
vention	-4391
▁disp	-4392
▁programs	-4393
▁parliament	-4394
▁बन्	-4395
▁व्याव	-4396
aker	-4397
▁प्रेम	-4398
▁Gur	-4399
▁सक्षम	-4400
▁सल्लाह	-4401
ट्टा	-4402
▁design	-4403
▁मधे	-4404
ares	-4405
▁भएमा	-4406
▁आए	-4407
▁वर्षीय	-4408
स्थिति	-4409
▁अक्	-4410
▁बोला	-4411
▁ww	-4412
▁राजनीति	-4413
▁www	-4414
▁something	-4415
▁talks	-4416
bass	-4417
▁प्रतियोगि	-4418
▁Air	-4419
▁employees	-4420
▁दोष	-4421
मती	-4422
to	-4423
▁chall	-4424
्दा	-4425
▁व्यवहार	-4426
sw	-4427
थो	-4428
▁federal	-4429
▁room	-4430
हू	-4431
▁एक्	-4432
▁object	-4433
ङ्गा	-4434
▁स्थानमा	-4435
▁hit	-4436
▁लागत	-4437
AT	-4438
▁charact	-4439
ager	-4440
▁pati	-4441
▁सेप्टे	-4442
▁er	-4443
▁गर	-4444
▁el	-4445
▁आर	-4446
▁House	-4447
▁expected	-4448
▁travel	-4449
rial	-4450
तालाई	-4451
▁आधारित	-4452
▁आउ	-4453
▁suggest	-4454
▁दाय	-4455
▁स्थापित	-4456
न्च	-4457
cing	-4458
▁मोड	-4459
▁International	-4460
▁खाने	-4461
▁outside	-4462
▁foc	-4463
▁सम्ब	-4464
▁फिर्ता	-4465
▁शनिबार	-4466
्लो	-4467
▁सम्बन्धी	-4468
han	-4469
▁आधा	-4470
▁pressure	-4471
▁नभए	-4472
▁मिनेट	-4473
▁initi	-4474
▁announced	-4475
▁across	-4476
▁प्रवक्ता	-4477
▁border	-4478
▁तेल	-4479
▁believe	-4480
▁detail	-4481
▁z	-4482
▁ठीक	-4483
▁University	-4484
▁dou	-4485
पन्न	-4486
▁clim	-4487
खर	-4488
▁हुन्छन्	-4489
▁मौस	-4490
▁mob	-4491
▁गराउने	-4492
▁mag	-4493
acy	-4494
ilt	-4495
ंका	-4496
▁Do	-4497
▁सुनि	-4498
▁सवारी	-4499
▁responsibility	-4500
ague	-4501
▁म्याक	-4502
▁सक्दैन	-4503
▁कलेज	-4504
ricity	-4505
नेर	-4506
धीश	-4507
▁प्रकाशित	-4508
▁दिन्छ	-4509
क्षर	-4510
▁Oct	-4511
▁माइक	-4512
▁Koir	-4513
जको	-4514
▁Ne	-4515
धिकरण	-4516
ुर्ुर्ुर्ुर्	-4517
▁आकर्ष	-4518
▁तपाईँको	-4519
▁उपभोक्ता	-4520
चक	-4521
▁Dav	-4522
ued	-4523
reme	-4524
▁कम्तीमा	-4525
▁Sun	-4526
▁From	-4527
▁Koirala	-4528
▁block	-4529
▁मधेश	-4530
▁began	-4531
▁चुनौती	-4532
▁ear	-4533
▁didn	-4534
▁corru	-4535
▁परमेश्वर	-4536
▁कप	-4537
म्पि	-4538
▁bur	-4539
▁led	-4540
▁मिडिया	-4541
▁परीक्षा	-4542
▁दबाब	-4543
▁better	-4544
leb	-4545
▁players	-4546
▁बचत	-4547
▁terror	-4548
रत	-4549
▁अधिका	-4550
ification	-4551
ttp	-4552
▁14	-4553
▁बार	-4554
▁त्यसै	-4555
▁becom	-4556
▁anything	-4557
sc	-4558
▁25	-4559
▁भन्न	-4560
▁छिटो	-4561
▁आन्त	-4562
▁favor	-4563
▁विकल्प	-4564
▁formed	-4565
▁doing	-4566
▁further	-4567
श्व	-4568
▁seek	-4569
▁Mus	-4570
nel	-4571
▁related	-4572
▁http	-4573
▁मान्छे	-4574
▁सकेन	-4575
▁friends	-4576
▁protect	-4577
▁Gh	-4578
▁कठिन	-4579
▁साँच	-4580
तै	-4581
▁themselves	-4582
▁cris	-4583
▁किसि	-4584
▁सम्मान	-4585
यण	-4586
wan	-4587
▁बिहान	-4588
▁laun	-4589
▁mention	-4590
▁कम्पनीले	-4591
▁promot	-4592
▁माध्य	-4593
▁ठे	-4594
iddle	-4595
▁हरेक	-4596
▁भट्ट	-4597
▁needs	-4598
rist	-4599
▁मना	-4600
▁अधिकारीहरूले	-4601
िकेट	-4602
band	-4603
▁dead	-4604
utes	-4605
सीले	-4606
▁कोइरा	-4607
io	-4608
▁13	-4609
hing	-4610
▁plans	-4611
▁cand	-4612
पक्षी	-4613
▁आन्तरिक	-4614
▁position	-4615
▁resident	-4616
▁Nar	-4617
▁भनी	-4618
▁mean	-4619
▁सत्य	-4620
▁सिफ	-4621
▁Bhatt	-4622
▁exam	-4623
▁पर्यो	-4624
▁Shah	-4625
▁kill	-4626
▁मानिसहरूले	-4627
▁किसान	-4628
▁regist	-4629
▁यौन	-4630
▁projects	-4631
▁Assembly	-4632
cer	-4633
खि	-4634
ler	-4635
▁wife	-4636
▁हिंसा	-4637
▁respect	-4638
ials	-4639
▁क्षेत्रको	-4640
apt	-4641
ither	-4642
▁ten	-4643
▁coord	-4644
▁मिति	-4645
▁क्रिया	-4646
▁begin	-4647
▁सुझा	-4648
▁विधे	-4649
▁black	-4650
▁organizations	-4651
▁impact	-4652
▁tru	-4653
ication	-4654
लाइन	-4655
isions	-4656
▁वर्षमा	-4657
▁Democ	-4658
्वी	-4659
▁goal	-4660
▁Offic	-4661
▁reb	-4662
लका	-4663
▁रूप	-4664
▁contrib	-4665
elt	-4666
टु	-4667
▁पर्यटन	-4668
ndra	-4669
िनो	-4670
▁प्रदेश	-4671
▁works	-4672
▁पाए	-4673
▁pers	-4674
ili	-4675
endent	-4676
▁Board	-4677
याधीश	-4678
▁ground	-4679
▁छोरी	-4680
▁prior	-4681
reng	-4682
याली	-4683
▁bar	-4684
▁reported	-4685
ighb	-4686
लिया	-4687
▁आप	-4688
▁Joh	-4689
▁eight	-4690
▁गावि	-4691
▁event	-4692
कार्य	-4693
▁चिनियाँ	-4694
▁गलत	-4695
▁Russ	-4696
▁नदि	-4697
▁मारि	-4698
▁वर्षअघि	-4699
▁officer	-4700
▁उम्मे	-4701
▁देखिएको	-4702
▁front	-4703
दम	-4704
▁सिफारि	-4705
cl	-4706
head	-4707
▁fest	-4708
▁अधिकांश	-4709
▁transport	-4710
▁आलोचना	-4711
most	-4712
▁वास्तवमा	-4713
▁kept	-4714
लिङ	-4715
ource	-4716
क्ट	-4717
▁Don	-4718
▁एन्ड	-4719
rishna	-4720
▁गुणस्त	-4721
ators	-4722
▁येश	-4723
▁tw	-4724
▁previous	-4725
▁पार्ने	-4726
rep	-4727
▁VDC	-4728
▁certain	-4729
फाइ	-4730
▁रण	-4731
▁न्यून	-4732
uge	-4733
▁Due	-4734
▁असर	-4735
gun	-4736
▁Ju	-4737
▁crisis	-4738
▁17	-4739
aily	-4740
विधिक	-4741
जसो	-4742
▁एकै	-4743
ien	-4744
ज्	-4745
▁तत्काल	-4746
▁completed	-4747
me	-4748
फ्	-4749
▁सामना	-4750
▁जिम्मेवारी	-4751
▁प्ले	-4752
▁address	-4753
▁सोध	-4754
▁पराम	-4755
hara	-4756
▁Mal	-4757
▁thought	-4758
▁पुग्यो	-4759
▁ब्य	-4760
पहि	-4761
▁इन्टर	-4762
▁early	-4763
ल्ट	-4764
चाह	-4765
▁Madhesi	-4766
▁परामर्श	-4767
▁resources	-4768
▁येशू	-4769
▁teac	-4770
ON	-4771
ाचार	-4772
▁During	-4773
तीय	-4774
▁निर्देशन	-4775
▁authority	-4776
ma	-4777
▁केटा	-4778
रीमा	-4779
▁पुर्	-4780
▁देव	-4781
एफ	-4782
▁opened	-4783
▁समितिले	-4784
▁उभि	-4785
▁२४	-4786
▁expressed	-4787
oti	-4788
urb	-4789
▁itself	-4790
▁daughter	-4791
▁डब्	-4792
▁भवन	-4793
▁पूजा	-4794
▁देउ	-4795
▁ढि	-4796
▁बढेको	-4797
▁प्राधिकरण	-4798
▁फुटबल	-4799
▁elections	-4800
▁income	-4801
▁Chairman	-4802
▁Sy	-4803
पर्क	-4804
▁क्षमता	-4805
▁सम्म	-4806
▁fear	-4807
▁एउटै	-4808
▁force	-4809
▁population	-4810
▁miss	-4811
▁agricult	-4812
▁पक्षमा	-4813
of	-4814
▁संकलन	-4815
▁संरचना	-4816
▁really	-4817
▁अर्थतन्त्र	-4818
▁districts	-4819
▁exist	-4820
▁तिम्रो	-4821
▁youth	-4822
▁आम्	-4823
दफा	-4824
▁By	-4825
▁pros	-4826
▁तारा	-4827
ensive	-4828
▁उपाध्यक्ष	-4829
▁played	-4830
र्का	-4831
▁issued	-4832
▁निर्धारण	-4833
▁neighb	-4834
▁भनाइ	-4835
▁तु	-4836
पक	-4837
▁लिग	-4838
▁Parliament	-4839
▁प्रभावित	-4840
▁aud	-4841
▁San	-4842
▁tit	-4843
▁file	-4844
▁पुरा	-4845
▁बाबु	-4846
▁वायु	-4847
▁published	-4848
▁महसुस	-4849
▁located	-4850
▁flow	-4851
▁बजे	-4852
▁भारतको	-4853
धिकार	-4854
▁li	-4855
▁शासन	-4856
▁उम्मेद	-4857
▁नौ	-4858
▁परेका	-4859
ञ्जी	-4860
▁समितिको	-4861
▁शी	-4862
ंदै	-4863
▁व्यक्तिले	-4864
▁डर	-4865
▁economy	-4866
▁भई	-4867
▁परिभा	-4868
▁डिजा	-4869
lobal	-4870
▁सक्नेछ	-4871
▁लगायत	-4872
▁उठा	-4873
▁उपदफा	-4874
▁facilities	-4875
▁साह	-4876
ify	-4877
▁gold	-4878
▁ड्राइ	-4879
▁Kore	-4880
▁secretary	-4881
▁streng	-4882
▁continue	-4883
▁target	-4884
▁estim	-4885
▁conflic	-4886
हीन	-4887
▁candid	-4888
▁व्यक्तिगत	-4889
ium	-4890
▁administration	-4891
▁दैनिक	-4892
सव	-4893
▁doct	-4894
▁मेरा	-4895
▁पक्र	-4896
▁infl	-4897
▁celeb	-4898
▁oil	-4899
quake	-4900
▁natural	-4901
▁विमानस्थ	-4902
▁hom	-4903
hel	-4904
▁आम्दानी	-4905
▁सश	-4906
▁Commun	-4907
▁फोटो	-4908
▁looking	-4909
▁झा	-4910
▁सञ्ज	-4911
▁चैत	-4912
▁धार	-4913
▁bad	-4914
▁Bec	-4915
aps	-4916
oll	-4917
▁सँग	-4918
▁phys	-4919
▁प्राविधिक	-4920
une	-4921
▁डल	-4922
▁inside	-4923
▁blood	-4924
म्बा	-4925
▁सक्रिय	-4926
इँ	-4927
▁ready	-4928
▁AP	-4929
▁विश्वव्यापी	-4930
पहिलो	-4931
▁सुझाव	-4932
▁रात	-4933
▁योगदान	-4934
▁नपा	-4935
▁products	-4936
ोरी	-4937
▁घाइ	-4938
▁disease	-4939
▁हिमा	-4940
▁वार्ष	-4941
देशिक	-4942
▁फाइदा	-4943
ैमासिक	-4944
खित	-4945
▁ऊर्जा	-4946
▁बताएका	-4947
▁Many	-4948
▁बताउँछन्	-4949
कम्प	-4950
▁उदाहरण	-4951
▁अर्था	-4952
▁date	-4953
▁छिमे	-4954
▁नगर्ने	-4955
ester	-4956
▁पोष्ट	-4957
ँडा	-4958
▁थिइन्	-4959
▁कांग्रेस	-4960
▁susp	-4961
▁दृश्य	-4962
▁केन्द्रित	-4963
▁जसरी	-4964
▁भावना	-4965
▁सन्दर्भ	-4966
▁Can	-4967
▁destro	-4968
oon	-4969
▁born	-4970
▁defe	-4971
▁Br	-4972
्युट	-4973
arents	-4974
▁नहुने	-4975
लिन	-4976
▁टाढा	-4977
मूल	-4978
▁त्रैमासिक	-4979
कारण	-4980
▁शुल्क	-4981
ita	-4982
▁ग्राहक	-4983
▁attention	-4984
रेर	-4985
▁meas	-4986
venue	-4987
▁विभा	-4988
कृष्ट	-4989
▁पुनर्स्थापना	-4990
मका	-4991
▁अङ्क	-4992
▁abroad	-4993
सुक	-4994
ories	-4995
▁points	-4996
सल	-4997
▁September	-4998
▁recomm	-4999
▁सम्बोधन	-5000
ises	-5001
▁Foreign	-5002
घट	-5003
▁football	-5004
ex	-5005
▁उपत्य	-5006
atic	-5007
ल्यू	-5008
ights	-5009
▁सही	-5010
▁बिन्दु	-5011
▁returned	-5012
isf	-5013
▁पृष्ठ	-5014
ecially	-5015
▁orig	-5016
▁John	-5017
▁गर्नुहु	-5018
▁schools	-5019
vert	-5020
hest	-5021
तु	-5022
▁practice	-5023
be	-5024
▁थोर	-5025
रीय	-5026
▁भौ	-5027
ought	-5028
▁फ्रे	-5029
▁legal	-5030
▁घाइते	-5031
▁efforts	-5032
uw	-5033
▁वक्त	-5034
ape	-5035
▁सकिने	-5036
▁conference	-5037
▁poor	-5038
मन	-5039
हल	-5040
▁examp	-5041
जर	-5042
▁staff	-5043
▁quarter	-5044
▁arg	-5045
▁राखि	-5046
▁culture	-5047
▁समर्थन	-5048
▁improve	-5049
रेका	-5050
▁heard	-5051
▁wind	-5052
ठी	-5053
▁कोही	-5054
▁above	-5055
क्षे	-5056
urance	-5057
▁साना	-5058
▁lives	-5059
लिएको	-5060
▁प्रत्यक्ष	-5061
hern	-5062
▁सोही	-5063
▁जस्ता	-5064
▁rather	-5065
रुप	-5066
▁sum	-5067
▁हिजो	-5068
▁गरियो	-5069
▁वरिष्ठ	-5070
yle	-5071
▁pot	-5072
usband	-5073
▁saw	-5074
▁जसको	-5075
▁वेब	-5076
▁किलो	-5077
▁अर्का	-5078
ricket	-5079
cri	-5080
ensus	-5081
▁drug	-5082
▁अवि	-5083
▁वक्तव्य	-5084
estern	-5085
▁coop	-5086
▁gir	-5087
▁drink	-5088
▁access	-5089
रूप	-5090
▁तर्क	-5091
▁अभिभाव	-5092
▁अवस्थित	-5093
सचिव	-5094
मेन्ट	-5095
▁बाट	-5096
overed	-5097
▁site	-5098
ham	-5099
▁accident	-5100
▁opportunity	-5101
पय	-5102
▁उपयोग	-5103
▁साइट	-5104
▁Pakistan	-5105
▁नाममा	-5106
den	-5107
▁stopped	-5108
▁Jud	-5109
▁एफ	-5110
मार्ग	-5111
▁eyes	-5112
▁२२	-5113
ively	-5114
▁Aug	-5115
▁purp	-5116
▁जवा	-5117
▁आगो	-5118
कुमार	-5119
ख्	-5120
▁स्वीकार	-5121
▁पृथ	-5122
▁व्यावसाय	-5123
ests	-5124
▁क्रि	-5125
▁Bl	-5126
bs	-5127
जोर	-5128
डमा	-5129
▁पारि	-5130
▁अल्	-5131
▁having	-5132
▁मानिसहरूलाई	-5133
▁growth	-5134
▁senior	-5135
ाउँछ	-5136
▁hours	-5137
ेपछि	-5138
▁quality	-5139
▁क्रिकेट	-5140
▁४०	-5141
▁British	-5142
▁भै	-5143
।”	-5144
▁complain	-5145
▁कतिपय	-5146
▁की	-5147
▁Sam	-5148
▁pun	-5149
▁कलाकार	-5150
▁सजा	-5151
het	-5152
▁तालिम	-5153
निर्माण	-5154
▁lic	-5155
▁दफा	-5156
▁परमप्रभुले	-5157
▁loss	-5158
▁nothing	-5159
▁sever	-5160
▁छिमेकी	-5161
▁शिक्षक	-5162
्दै	-5163
▁cast	-5164
▁pric	-5165
by	-5166
▁David	-5167
▁hands	-5168
▁वरिपरि	-5169
▁collect	-5170
▁fr	-5171
▁बाँच	-5172
▁Im	-5173
▁त्यसलाई	-5174
enc	-5175
▁कमा	-5176
▁imm	-5177
स्को	-5178
रिक्त	-5179
▁थोरै	-5180
ateg	-5181
▁Cup	-5182
▁मान्यता	-5183
ोका	-5184
ारमा	-5185
▁Dev	-5186
▁चित्र	-5187
▁पक्राउ	-5188
▁हेरचाह	-5189
मीण	-5190
▁टु	-5191
▁command	-5192
▁En	-5193
नियम	-5194
वास	-5195
वेद	-5196
▁pos	-5197
▁संस्कृति	-5198
▁giving	-5199
▁beaut	-5200
ipl	-5201
▁खुशी	-5202
न्थे	-5203
▁पठा	-5204
▁उद्ध	-5205
ners	-5206
▁शर्मा	-5207
incip	-5208
▁bill	-5209
ामा	-5210
▁Gu	-5211
▁Kam	-5212
▁course	-5213
▁195	-5214
▁सच	-5215
▁speak	-5216
यता	-5217
▁खराब	-5218
▁ग्रामीण	-5219
कपा	-5220
▁husband	-5221
▁तिमीहरू	-5222
▁आउन	-5223
सिन्दा	-5224
▁विशेषज्ञ	-5225
ित्व	-5226
▁ord	-5227
▁टाइ	-5228
ender	-5229
▁खोजी	-5230
▁राजस्व	-5231
▁उडान	-5232
▁enough	-5233
▁कोइराला	-5234
erg	-5235
▁jo	-5236
men	-5237
▁Lal	-5238
▁197	-5239
क्षिक	-5240
▁movie	-5241
▁पार्टीका	-5242
पत	-5243
▁भएन	-5244
▁experience	-5245
ites	-5246
वाई	-5247
▁Mc	-5248
▁भनिन्	-5249
lish	-5250
▁research	-5251
▁अवधिमा	-5252
▁strugg	-5253
जनक	-5254
▁भिडियो	-5255
ज्ञानिक	-5256
istic	-5257
▁proposal	-5258
किङ	-5259
▁govern	-5260
rain	-5261
▁built	-5262
▁कुन	-5263
rast	-5264
▁रणनी	-5265
▁रोजगारी	-5266
▁strik	-5267
▁Cons	-5268
▁वर्षसम्म	-5269
ada	-5270
▁ग्र	-5271
▁data	-5272
▁पौड	-5273
▁उपकरण	-5274
▁earthquake	-5275
ns	-5276
▁App	-5277
▁conflict	-5278
▁आश	-5279
▁कट	-5280
▁मिश्र	-5281
vest	-5282
▁several	-5283
▁भ्रष्टाचार	-5284
.5	-5285
▁लाइन	-5286
▁नेकपा	-5287
यको	-5288
▁टाउ	-5289
▁likely	-5290
▁सञ्जाल	-5291
reen	-5292
▁भूकम्प	-5293
▁डिजाइन	-5294
▁पत्ता	-5295
▁दिइएको	-5296
▁Jos	-5297
▁२३	-5298
▁Christ	-5299
▁सर्वोच्च	-5300
▁व्यक्तिलाई	-5301
lege	-5302
सीको	-5303
टको	-5304
poration	-5305
▁जनताले	-5306
▁key	-5307
▁common	-5308
▁buy	-5309
ems	-5310
▁जवाफ	-5311
▁search	-5312
▁regard	-5313
▁Direct	-5314
▁heav	-5315
लिरहेको	-5316
▁almost	-5317
▁चिन्ता	-5318
airs	-5319
▁subject	-5320
टेड	-5321
▁चाहे	-5322
▁property	-5323
▁बढाउन	-5324
▁बनाएको	-5325
ops	-5326
▁par	-5327
▁गुना	-5328
▁tried	-5329
▁व्यावसायिक	-5330
▁बेच	-5331
▁Municipality	-5332
▁arrange	-5333
▁पर्व	-5334
▁displ	-5335
AR	-5336
irth	-5337
▁पहु	-5338
▁प्रभावकारी	-5339
▁साइ	-5340
▁operation	-5341
▁कुञ्जी	-5342
▁Med	-5343
▁Krishna	-5344
▁लेखक	-5345
▁Army	-5346
▁voice	-5347
▁बिना	-5348
▁स्तर	-5349
▁Health	-5350
▁सङ्गीत	-5351
▁rules	-5352
▁उम्मेदवार	-5353
शाली	-5354
▁खेलमा	-5355
▁Bab	-5356
stitu	-5357
▁Plan	-5358
▁राखेको	-5359
▁Republic	-5360
▁cred	-5361
▁संस्थान	-5362
▁राखे	-5363
vision	-5364
ashing	-5365
▁anyone	-5366
▁अक्टो	-5367
▁forces	-5368
▁sim	-5369
▁कठोर	-5370
▁महत्वपूर्ण	-5371
ँजी	-5372
▁State	-5373
▁झन्ड	-5374
▁जोन	-5375
ितो	-5376
▁अथ	-5377
▁Loc	-5378
ression	-5379
▁investigation	-5380
▁North	-5381
▁पत्रिका	-5382
▁cases	-5383
▁Fed	-5384
▁योग्य	-5385
नुभन्दा	-5386
▁Because	-5387
▁रक्षा	-5388
▁recently	-5389
▁accused	-5390
ergy	-5391
▁पदार्थ	-5392
▁न्यायाधीश	-5393
▁needed	-5394
ताव	-5395
▁behind	-5396
▁green	-5397
चारिक	-5398
▁अतिरिक्त	-5399
कर	-5400
▁often	-5401
▁Up	-5402
▁department	-5403
▁झ्	-5404
ring	-5405
▁ban	-5406
न्टि	-5407
▁Of	-5408
▁happy	-5409
▁Ger	-5410
ably	-5411
▁बैठकमा	-5412
▁प्रतिबद्ध	-5413
▁अंश	-5414
▁opposition	-5415
▁prepared	-5416
ilies	-5417
▁बढ्दो	-5418
▁उत्पन्न	-5419
ship	-5420
▁West	-5421
▁grad	-5422
ल्स	-5423
तिकै	-5424
▁wrong	-5425
▁सिका	-5426
▁शीर्ष	-5427
▁Tam	-5428
ogn	-5429
▁adop	-5430
▁forced	-5431
▁Section	-5432
▁केटी	-5433
yal	-5434
▁स्थ	-5435
uel	-5436
▁letter	-5437
▁hope	-5438
arters	-5439
▁गणतन्त्र	-5440
पश्च	-5441
▁साँच्च	-5442
▁towards	-5443
▁destroy	-5444
▁श्रृ	-5445
now	-5446
▁paid	-5447
▁phot	-5448
▁१००	-5449
▁मन्दिर	-5450
▁mis	-5451
▁turn	-5452
▁द्वन्द्व	-5453
र्द्ध	-5454
imin	-5455
▁river	-5456
▁closed	-5457
▁फ्रान्	-5458
▁टी	-5459
▁गल्	-5460
▁Every	-5461
osing	-5462
▁पाइन्छ	-5463
aching	-5464
▁Center	-5465
▁trib	-5466
▁जम्मा	-5467
▁खोजि	-5468
▁दोहो	-5469
▁prescribed	-5470
▁exc	-5471
▁लगानीकर्ता	-5472
▁नामक	-5473
▁ल्याउन	-5474
▁विज्ञा	-5475
कोण	-5476
▁weak	-5477
▁groups	-5478
▁50	-5479
van	-5480
af	-5481
▁उत्त	-5482
▁हुनुपर्छ	-5483
▁expect	-5484
लाग्	-5485
▁popular	-5486
▁सत्ता	-5487
▁उपयुक्त	-5488
mi	-5489
▁शे	-5490
view	-5491
▁expert	-5492
uba	-5493
धानिक	-5494
eter	-5495
खु	-5496
पद	-5497
▁खाना	-5498
urk	-5499
मय	-5500
▁&#	-5501
क्का	-5502
▁settle	-5503
let	-5504
▁di	-5505
▁vide	-5506
बाहिर	-5507
▁sure	-5508
वाल	-5509
▁Val	-5510
▁Vice	-5511
▁banks	-5512
▁ज्ञान	-5513
▁coll	-5514
▁message	-5515
▁वार्षिक	-5516
▁भर्ना	-5517
▁getting	-5518
▁currently	-5519
▁पहुँच	-5520
▁कार्यसम्	-5521
▁ट्रा	-5522
▁required	-5523
▁जिल्लाको	-5524
▁सकेको	-5525
wh	-5526
▁गठ	-5527
▁जनतालाई	-5528
▁created	-5529
▁प्राप्ता	-5530
▁Why	-5531
▁गिर	-5532
▁मालिक	-5533
▁mid	-5534
▁democratic	-5535
iting	-5536
▁Budd	-5537
▁Serv	-5538
▁fulf	-5539
▁July	-5540
▁electricity	-5541
▁खान	-5542
▁threat	-5543
ahal	-5544
ze	-5545
▁प्रकारको	-5546
▁सजिलो	-5547
ledge	-5548
ंख	-5549
ka	-5550
▁त्यसो	-5551
▁डब्ल्यू	-5552
▁बग	-5553
▁दौड	-5554
▁प्रतिनिधित्व	-5555
▁लै	-5556
▁Other	-5557
▁चाहन्छ	-5558
▁नियमित	-5559
ङले	-5560
ta	-5561
▁सक्नुहुन्छ	-5562
oring	-5563
▁प्राप्ताङ्क	-5564
ेलले	-5565
▁समान	-5566
▁यहू	-5567
▁energy	-5568
▁rule	-5569
ctions	-5570
हारी	-5571
▁cir	-5572
▁Author	-5573
▁Aust	-5574
▁सिफारिस	-5575
▁mentioned	-5576
▁धु	-5577
ग्रा	-5578
दिए	-5579
▁धितो	-5580
परी	-5581
▁Gurung	-5582
▁<	-5583
the	-5584
▁Bhattarai	-5585
▁successful	-5586
▁21	-5587
▁एल	-5588
uary	-5589
▁गुनासो	-5590
▁लाग्ने	-5591
▁नवी	-5592
▁informed	-5593
▁अधिकारीले	-5594
▁झन्डै	-5595
▁स्म	-5596
▁वर्ण	-5597
▁&#9	-5598
▁create	-5599
ञ्चल	-5600
raj	-5601
ाउँदै	-5602
▁gener	-5603
यद	-5604
▁स्वय	-5605
▁disapp	-5606
▁लगाउने	-5607
adem	-5608
▁टाउको	-5609
▁prices	-5610
▁लिएको	-5611
▁investig	-5612
▁होस्	-5613
▁बासिन्दा	-5614
ffic	-5615
▁esp	-5616
▁प्रग	-5617
्युनि	-5618
▁अथवा	-5619
▁spread	-5620
▁परमेश्वरले	-5621
cast	-5622
esterday	-5623
सेवा	-5624
▁cause	-5625
▁पत्	-5626
▁October	-5627
▁playing	-5628
▁families	-5629
▁गरिन्	-5630
▁आउँछ	-5631
▁बिलियन	-5632
▁ब्	-5633
▁२०५	-5634
▁अनुदान	-5635
orrow	-5636
odies	-5637
▁रहेछ	-5638
▁houses	-5639
abababab	-5640
▁हस्ताक्षर	-5641
न्टा	-5642
▁ट्या	-5643
▁joint	-5644
▁celebr	-5645
▁सपना	-5646
▁words	-5647
▁Gir	-5648
हरूबाट	-5649
▁प्रबन्ध	-5650
म्बरमा	-5651
encies	-5652
▁धेरैजसो	-5653
रीले	-5654
▁daily	-5655
▁Pand	-5656
▁विज्ञान	-5657
▁=	-5658
▁character	-5659
▁मार्	-5660
▁हड	-5661
▁­	-5662
▁fell	-5663
▁प्रसार	-5664
▁games	-5665
▁कदम	-5666
▁सबैले	-5667
▁दृष्टिकोण	-5668
▁बढ्दै	-5669
▁लगाउन	-5670
▁aware	-5671
▁clean	-5672
-2	-5673
▁सिद्धा	-5674
▁पृथ्वी	-5675
▁ir	-5676
▁Sar	-5677
▁मङ्ग	-5678
▁vehicles	-5679
दय	-5680
▁sil	-5681
cation	-5682
▁टिक	-5683
▁नसक्ने	-5684
▁check	-5685
बन्दी	-5686
▁आम	-5687
संख्या	-5688
ङको	-5689
टिश	-5690
▁रहने	-5691
▁higher	-5692
▁अत्यन्त	-5693
▁खासगरी	-5694
▁indep	-5695
मल	-5696
क्षेप	-5697
▁गिरफ्	-5698
ुट्टा	-5699
श्चर्य	-5700
▁मूर्	-5701
▁signific	-5702
▁especially	-5703
while	-5704
▁parents	-5705
▁भर	-5706
अगाडि	-5707
▁अन्तर्गत	-5708
rip	-5709
सू	-5710
▁थालेको	-5711
▁पाउन	-5712
▁आकार	-5713
▁बमोजिमको	-5714
▁ple	-5715
▁plant	-5716
ovember	-5717
कूल	-5718
▁failed	-5719
▁अम	-5720
न्टी	-5721
▁War	-5722
▁Har	-5723
▁जबकि	-5724
▁सरकारलाई	-5725
▁बोल्	-5726
▁प्रारम्भिक	-5727
▁middle	-5728
छिन्	-5729
▁Bal	-5730
▁हतियार	-5731
arch	-5732
▁सहज	-5733
▁Hospital	-5734
▁फल	-5735
▁फ्याँ	-5736
empt	-5737
▁Bas	-5738
जात	-5739
▁प्रशं	-5740
ालि	-5741
▁मुलुकमा	-5742
▁सीमित	-5743
▁details	-5744
ift	-5745
▁जापान	-5746
▁चिकित्	-5747
de	-5748
over	-5749
wal	-5750
▁सामु	-5751
▁चाँड	-5752
सामा	-5753
▁फोन	-5754
▁birth	-5755
▁Del	-5756
▁छे	-5757
▁आश्चर्य	-5758
irst	-5759
▁दिनमा	-5760
▁break	-5761
▁ट्रे	-5762
टाइ	-5763
चालन	-5764
▁उचित	-5765
▁gone	-5766
▁hol	-5767
▁क्याम्प	-5768
द्रो	-5769
▁इतिहास	-5770
▁प्रतिष्ठ	-5771
विध	-5772
omb	-5773
ताल	-5774
भूमि	-5775
▁Rai	-5776
▁कमजोर	-5777
▁एकल	-5778
नन्द	-5779
▁कहाँ	-5780
estic	-5781
▁board	-5782
▁victims	-5783
▁changed	-5784
▁violence	-5785
्रय	-5786
▁जर्म	-5787
▁value	-5788
▁प्रवृत्ति	-5789
IN	-5790
▁शैली	-5791
▁wid	-5792
▁Per	-5793
▁इस्	-5794
▁Feb	-5795
▁corruption	-5796
ङमा	-5797
▁विजय	-5798
मेलन	-5799
gunj	-5800
▁गरें	-5801
▁example	-5802
▁English	-5803
▁Ed	-5804
▁magaz	-5805
▁रमा	-5806
शक्ति	-5807
▁enter	-5808
▁match	-5809
▁repe	-5810
▁Mor	-5811
▁चढ	-5812
▁late	-5813
▁एच	-5814
▁Most	-5815
▁रेडियो	-5816
ades	-5817
▁farmers	-5818
▁festival	-5819
▁vol	-5820
▁Just	-5821
▁होटल	-5822
▁Spe	-5823
▁boy	-5824
▁terms	-5825
RN	-5826
ashington	-5827
lam	-5828
▁मेट	-5829
▁released	-5830
▁संघर्ष	-5831
▁मतदान	-5832
▁progress	-5833
▁मुद्रा	-5834
raft	-5835
▁उसलाई	-5836
▁रोक्न	-5837
▁सम्मेलन	-5838
upees	-5839
▁Poud	-5840
atory	-5841
▁आयात	-5842
▁नाका	-5843
▁क्रियाकला	-5844
▁affected	-5845
क्षी	-5846
▁चेताव	-5847
▁प्रोत्सा	-5848
▁कानू	-5849
▁काउ	-5850
▁Washington	-5851
▁influ	-5852
▁धारणा	-5853
▁आपूर्ति	-5854
rene	-5855
▁weap	-5856
रामा	-5857
▁mur	-5858
पाद	-5859
▁सम्पर्क	-5860
▁executive	-5861
▁आइपु	-5862
▁cover	-5863
▁पाएको	-5864
▁ग्या	-5865
▁कृष्ण	-5866
▁चेतावनी	-5867
धुनिक	-5868
▁November	-5869
ropri	-5870
▁spent	-5871
▁City	-5872
▁सकारात्मक	-5873
▁states	-5874
▁जनसंख्या	-5875
▁Jh	-5876
tained	-5877
▁bodies	-5878
▁स्टक	-5879
लेका	-5880
▁आफूले	-5881
▁तस्	-5882
ams	-5883
▁broad	-5884
▁२६	-5885
शन	-5886
▁network	-5887
र्मिक	-5888
▁महत्त्वपूर्ण	-5889
▁तराई	-5890
▁Inc	-5891
stitute	-5892
▁Dahal	-5893
ude	-5894
▁ध्व	-5895
▁सुन्द	-5896
▁partic	-5897
▁determin	-5898
च्छेद	-5899
ौट	-5900
▁वासिङ	-5901
▁अन्त्यमा	-5902
▁ह्या	-5903
▁भट्टराई	-5904
▁easy	-5905
▁आन्दोल	-5906
लिपि	-5907
णिज्य	-5908
▁injured	-5909
▁motor	-5910
लाल	-5911
oses	-5912
rodu	-5913
काम	-5914
▁अष्ट	-5915
▁कम्युनि	-5916
▁Prov	-5917
ession	-5918
▁म्यान	-5919
▁राष्ट्रसंघ	-5920
ota	-5921
▁developed	-5922
▁expand	-5923
▁attract	-5924
▁कर्जा	-5925
▁बच्चा	-5926
iscal	-5927
▁जसमा	-5928
usion	-5929
▁हित	-5930
▁weeks	-5931
▁भनिन्छ	-5932
▁बह	-5933
▁wanted	-5934
arya	-5935
rastru	-5936
▁positive	-5937
्रान्ति	-5938
que	-5939
▁achieve	-5940
▁जहा	-5941
▁भण्डार	-5942
▁क्षेत्रका	-5943
टिल	-5944
दूत	-5945
्छन्	-5946
reprene	-5947
▁शाह	-5948
▁active	-5949
▁दाहाल	-5950
▁उत्कृष्ट	-5951
▁तिमीहरूले	-5952
▁princip	-5953
▁छवि	-5954
▁Pat	-5955
▁लाई	-5956
▁Post	-5957
▁हाइ	-5958
भागि	-5959
प्रिय	-5960
▁Our	-5961
▁स्वि	-5962
etimes	-5963
▁raise	-5964
▁सट्टा	-5965
▁दुर्घट	-5966
ode	-5967
▁construct	-5968
▁मन्त्रालयले	-5969
▁writing	-5970
▁spokes	-5971
▁२७	-5972
▁hur	-5973
▁सधैँ	-5974
inated	-5975
▁भन्छ	-5976
ological	-5977
▁शरीर	-5978
सब	-5979
▁release	-5980
▁बुद्धि	-5981
▁January	-5982
▁अभिभावक	-5983
एमा	-5984
साब	-5985
mission	-5986
▁recogn	-5987
▁क्षेत्रीय	-5988
▁Officer	-5989
▁२८	-5990
▁टोलीले	-5991
▁कार्यालयमा	-5992
▁Lik	-5993
▁employment	-5994
र्घ	-5995
▁गर्छु	-5996
▁Poudel	-5997
▁passed	-5998
section	-5999
▁त्यसमा	-6000
▁प्राकृतिक	-6001
▁request	-6002
▁मूल्याङ्क	-6003
▁अनुहार	-6004
▁results	-6005
▁देउवा	-6006
नुपर्दछ	-6007
▁Two	-6008
▁यथा	-6009
▁मिला	-6010
▁मानसिक	-6011
ging	-6012
▁प्रश्वास	-6013
ini	-6014
▁धन	-6015
change	-6016
▁simil	-6017
▁shown	-6018
▁तुरु	-6019
▁मोर्चा	-6020
▁लाइ	-6021
वली	-6022
▁laws	-6023
▁कामदार	-6024
icle	-6025
▁global	-6026
▁March	-6027
▁worked	-6028
▁offer	-6029
स्टर	-6030
▁सम्भावित	-6031
▁Asia	-6032
▁पाएका	-6033
ewise	-6034
▁send	-6035
▁School	-6036
▁लाग्यो	-6037
▁नोक्स	-6038
vey	-6039
▁performance	-6040
▁nature	-6041
▁तुरुन्त	-6042
क्सी	-6043
▁medical	-6044
जत	-6045
▁stre	-6046
▁पश्चि	-6047
▁गिरफ्तार	-6048
▁purpose	-6049
▁प्रचण्ड	-6050
भिजन	-6051
बम	-6052
▁wait	-6053
uter	-6054
▁headqu	-6055
▁bat	-6056
akers	-6057
▁running	-6058
रिएको	-6059
▁amend	-6060
imum	-6061
▁सेतो	-6062
▁गर्नका	-6063
▁thinking	-6064
▁Sher	-6065
▁सङ्केत	-6066
▁कारणले	-6067
▁माथिल्लो	-6068
la	-6069
वार्ता	-6070
ुटि	-6071
▁Bag	-6072
▁whose	-6073
▁personal	-6074
ne	-6075
▁Himal	-6076
िकल	-6077
enty	-6078
▁rout	-6079
▁एकपटक	-6080
▁अन्	-6081
▁Pal	-6082
▁title	-6083
ery	-6084
▁Edu	-6085
▁ball	-6086
▁source	-6087
योग्य	-6088
वित्र	-6089
▁अनलाइन	-6090
च्छा	-6091
▁गहि	-6092
ङ्ग्रे	-6093
acity	-6094
▁yesterday	-6095
▁एड	-6096
▁try	-6097
▁राई	-6098
▁pict	-6099
▁भइसकेको	-6100
▁आनन्द	-6101
▁application	-6102
▁Ins	-6103
▁grand	-6104
▁व्यापारी	-6105
▁Cal	-6106
▁sle	-6107
hib	-6108
▁उपाय	-6109
ened	-6110
▁आवाज	-6111
▁जान्छ	-6112
▁पत्नी	-6113
AND	-6114
िकै	-6115
▁tourism	-6116
▁diss	-6117
सुकै	-6118
▁sym	-6119
▁regul	-6120
▁दिनुभयो	-6121
▁महान	-6122
▁Invest	-6123
▁६०	-6124
text	-6125
▁Deuba	-6126
▁mountain	-6127
▁German	-6128
▁Dal	-6129
▁29	-6130
न्डर	-6131
mer	-6132
▁ess	-6133
▁August	-6134
सरमा	-6135
▁ahead	-6136
▁तुलनामा	-6137
▁implemented	-6138
न्सर	-6139
वधिक	-6140
▁answ	-6141
▁materials	-6142
हामी	-6143
▁धम्	-6144
▁urged	-6145
▁स्वामि	-6146
लाम	-6147
▁बद	-6148
▁बढा	-6149
▁knowledge	-6150
▁24	-6151
▁cross	-6152
▁America	-6153
hik	-6154
▁Let	-6155
▁बस्न	-6156
▁हस्त	-6157
▁कक्षा	-6158
नेछु	-6159
asion	-6160
▁मौसममा	-6161
▁critic	-6162
▁physical	-6163
▁पार्टीको	-6164
्रिक	-6165
▁दिनको	-6166
▁खुट्टा	-6167
▁cad	-6168
ening	-6169
▁च्याम्पि	-6170
▁CPN	-6171
▁मोटर	-6172
▁separate	-6173
pped	-6174
▁विशेषता	-6175
▁लाभ	-6176
स्टो	-6177
▁Are	-6178
▁ens	-6179
▁नगरी	-6180
▁स्वामित्व	-6181
ercial	-6182
uses	-6183
riage	-6184
साधारण	-6185
▁अभ्यास	-6186
▁रगत	-6187
▁Likewise	-6188
▁बनाइ	-6189
aves	-6190
▁medic	-6191
▁समितिका	-6192
▁प्रशिक्षण	-6193
for	-6194
▁सङ्ख्या	-6195
ploy	-6196
▁series	-6197
▁प्रमाणित	-6198
▁quick	-6199
▁विपक्षी	-6200
▁super	-6201
सक्छ	-6202
भग	-6203
▁makes	-6204
लोकन	-6205
uls	-6206
▁सम्मेल	-6207
पचारिक	-6208
▁Prach	-6209
▁पूर्वाधार	-6210
▁More	-6211
प्रा	-6212
▁cal	-6213
▁watch	-6214
▁प्रयोगकर्ता	-6215
क्य	-6216
सङ्	-6217
▁झर्	-6218
▁मुख	-6219
▁player	-6220
▁Jes	-6221
▁रेख	-6222
▁club	-6223
▁Pokhara	-6224
▁similar	-6225
▁except	-6226
▁Bush	-6227
▁wants	-6228
▁यसअघि	-6229
चार्य	-6230
धिकारी	-6231
▁कस्तो	-6232
▁leading	-6233
▁काठमाडौँ	-6234
▁implementation	-6235
▁mom	-6236
▁मौका	-6237
▁sem	-6238
▁पर्दा	-6239
सिन	-6240
▁जाति	-6241
▁elected	-6242
▁पुनर्निर्माण	-6243
राको	-6244
▁cou	-6245
डामा	-6246
▁link	-6247
▁धार्मिक	-6248
▁Prachanda	-6249
▁नव	-6250
ires	-6251
▁उपन्या	-6252
▁Ge	-6253
त्ने	-6254
▁टर्	-6255
▁discussion	-6256
▁op	-6257
▁गरेमा	-6258
▁सप्त	-6259
▁बाब	-6260
▁प्रगति	-6261
▁२९	-6262
▁modern	-6263
▁Kal	-6264
iplom	-6265
▁निस्क	-6266
▁यात्रु	-6267
▁रुपैया	-6268
▁maintain	-6269
हत	-6270
▁रुपैयाँ	-6271
▁Sen	-6272
योजक	-6273
▁European	-6274
rown	-6275
▁significant	-6276
▁चोट	-6277
▁relationship	-6278
▁happened	-6279
ूट	-6280
▁युरोप	-6281
▁transfer	-6282
▁Khan	-6283
▁जडान	-6284
▁entered	-6285
▁मङ्गलबार	-6286
▁झु	-6287
▁साव	-6288
▁Jesus	-6289
स्कृतिक	-6290
मू	-6291
irit	-6292
▁संवाद	-6293
ipur	-6294
▁गोल	-6295
▁poet	-6296
▁विद्रो	-6297
▁खाद्य	-6298
▁sens	-6299
ension	-6300
has	-6301
▁allowed	-6302
iers	-6303
▁insp	-6304
▁छुट्ट	-6305
▁इस्राएल	-6306
▁fa	-6307
▁novel	-6308
▁विधेयक	-6309
rab	-6310
reg	-6311
▁nor	-6312
▁royal	-6313
▁Public	-6314
▁लोकप्रिय	-6315
▁सङ्क	-6316
म्स	-6317
▁ministry	-6318
▁प्रेस	-6319
▁भन्नुहुन्छ	-6320
▁शर्त	-6321
▁आतंक	-6322
▁नाटक	-6323
▁वाल	-6324
▁Group	-6325
▁Central	-6326
apur	-6327
▁Her	-6328
सनको	-6329
▁सचेत	-6330
▁structure	-6331
▁सामान	-6332
▁लगभग	-6333
▁Shiv	-6334
▁कर्त	-6335
▁हावा	-6336
▁शैक्षिक	-6337
▁चर्चा	-6338
omen	-6339
श्री	-6340
▁काममा	-6341
▁निरी	-6342
सत	-6343
▁कम्प्युट	-6344
ंगा	-6345
▁बनाउ	-6346
▁एकजना	-6347
▁ang	-6348
▁rural	-6349
कहाँ	-6350
▁nine	-6351
▁अनुरोध	-6352
▁felt	-6353
▁कटौती	-6354
▁देशका	-6355
▁abs	-6356
HM	-6357
▁सहायक	-6358
▁sexual	-6359
down	-6360
मिटर	-6361
▁शाखा	-6362
▁प्रतिबन्ध	-6363
▁सिद्धान्त	-6364
▁२०४	-6365
▁sales	-6366
▁vehicle	-6367
दृ	-6368
▁कम्पनीको	-6369
▁चौध	-6370
▁कर्पोरे	-6371
▁prison	-6372
▁parts	-6373
▁Sapt	-6374
▁fair	-6375
▁residents	-6376
▁park	-6377
▁३५	-6378
▁बोल	-6379
▁करार	-6380
▁included	-6381
▁ठो	-6382
▁selected	-6383
िनी	-6384
कुर	-6385
▁फर्म	-6386
▁named	-6387
cious	-6388
▁il	-6389
▁ren	-6390
▁साधारण	-6391
▁Sw	-6392
▁presented	-6393
adesh	-6394
▁assistance	-6395
पण	-6396
▁pen	-6397
▁१९८	-6398
▁fiscal	-6399
▁Austral	-6400
▁पुग्न	-6401
▁कार्यसम्पादन	-6402
▁High	-6403
▁भन्नु	-6404
▁नोभे	-6405
▁entire	-6406
▁भिन्न	-6407
▁छनौट	-6408
▁बिमा	-6409
adio	-6410
▁तिमीले	-6411
▁दीर्घ	-6412
▁Authority	-6413
▁मंग	-6414
▁recon	-6415
त्ती	-6416
िन्	-6417
izing	-6418
▁प्रकाशन	-6419
stituent	-6420
▁स्थायी	-6421
▁मूल्याङ्कन	-6422
ivid	-6423
▁अध्या	-6424
▁दशक	-6425
▁worship	-6426
▁साधन	-6427
▁दर्जन	-6428
▁provision	-6429
▁additional	-6430
▁engine	-6431
▁headquarters	-6432
▁यू	-6433
▁अघिल्लो	-6434
rastructure	-6435
▁Ach	-6436
▁विरोधी	-6437
▁hy	-6438
▁माओवादीले	-6439
▁तिमीलाई	-6440
▁gas	-6441
▁थो	-6442
▁ment	-6443
▁everything	-6444
▁single	-6445
ban	-6446
▁धम्की	-6447
▁प्रमाणपत्र	-6448
▁airport	-6449
▁चिया	-6450
ourage	-6451
▁student	-6452
▁उत्सा	-6453
▁गर्छौं	-6454
▁टिकट	-6455
▁अनुगमन	-6456
▁include	-6457
idge	-6458
ading	-6459
▁निरा	-6460
▁परम्परागत	-6461
▁evening	-6462
▁Mean	-6463
▁whole	-6464
▁क्रान्ति	-6465
▁Mohamed	-6466
iah	-6467
aries	-6468
........	-6469
▁earlier	-6470
▁अपना	-6471
▁effective	-6472
प्रे	-6473
where	-6474
▁responsible	-6475
▁अमेरिकामा	-6476
▁illeg	-6477
▁कन्	-6478
dom	-6479
ney	-6480
▁2006	-6481
▁विना	-6482
वैधानिक	-6483
▁id	-6484
जमा	-6485
▁providing	-6486
▁मर्म	-6487
▁Panch	-6488
▁विज्ञापन	-6489
cember	-6490
▁प्राथमिकता	-6491
▁agreed	-6492
▁capacity	-6493
▁Such	-6494
▁begun	-6495
▁purch	-6496
▁Car	-6497
▁खेती	-6498
चे	-6499
▁सदर	-6500
ervation	-6501
based	-6502
▁institutions	-6503
▁deep	-6504
▁stock	-6505
▁port	-6506
▁पवित्र	-6507
▁shows	-6508
▁1959	-6509
▁contact	-6510
पोर्ट	-6511
▁runs	-6512
भूत	-6513
ull	-6514
▁literature	-6515
▁Bang	-6516
▁pat	-6517
arki	-6518
▁ele	-6519
ह्रो	-6520
▁कोरिया	-6521
▁थिएनन्	-6522
▁someone	-6523
asons	-6524
ruary	-6525
▁तथ्य	-6526
▁आधुनिक	-6527
▁Meanwhile	-6528
ules	-6529
ध्याप	-6530
▁slow	-6531
▁हाँ	-6532
▁Iran	-6533
▁News	-6534
▁भोलि	-6535
▁वैज्ञानिक	-6536
▁कतै	-6537
▁उहाँको	-6538
जुली	-6539
▁Ro	-6540
▁KAT	-6541
▁स्थिर	-6542
▁कर्तव्य	-6543
▁बेल	-6544
▁निर्यात	-6545
चय	-6546
▁वीर	-6547
▁technical	-6548
▁Mod	-6549
▁histor	-6550
▁मी	-6551
▁becoming	-6552
व्र	-6553
▁२००६	-6554
रित	-6555
▁कार्ड	-6556
▁तनाव	-6557
using	-6558
▁महासंघ	-6559
▁नियुक्त	-6560
▁Gork	-6561
▁बिस्तार	-6562
ixed	-6563
▁द्वारा	-6564
▁सहभागि	-6565
▁गर्नुहुन्छ	-6566
▁doll	-6567
▁क्षण	-6568
▁recommend	-6569
डिङ	-6570
ANDU	-6571
▁बाहि	-6572
▁KATHM	-6573
▁राउ	-6574
▁गर्नुभएको	-6575
bed	-6576
▁MP	-6577
▁red	-6578
▁Education	-6579
▁KATHMANDU	-6580
केका	-6581
▁काट	-6582
▁सांसद	-6583
▁कुराहरू	-6584
▁अर	-6585
▁claimed	-6586
▁December	-6587
▁revenue	-6588
alled	-6589
▁राणा	-6590
▁पुष्टि	-6591
▁pal	-6592
▁क्याल	-6593
▁22	-6594
▁print	-6595
▁चाँडै	-6596
▁तरिकाले	-6597
ठो	-6598
टले	-6599
▁स्वागत	-6600
▁Khad	-6601
▁Chit	-6602
▁cop	-6603
▁safe	-6604
▁आयोजित	-6605
▁circ	-6606
▁स्या	-6607
▁marriage	-6608
▁rise	-6609
▁पञ्च	-6610
▁however	-6611
▁उपत्यका	-6612
aught	-6613
▁beginning	-6614
▁प्रवर्द्ध	-6615
▁Constituent	-6616
वीर	-6617
▁३१	-6618
lying	-6619
▁रहन्छ	-6620
▁Company	-6621
▁सभापति	-6622
▁भागमा	-6623
▁Indust	-6624
▁minutes	-6625
▁स्वयं	-6626
▁गइरहेको	-6627
▁राखिएको	-6628
▁चिकित्सा	-6629
▁40	-6630
▁किश	-6631
▁उल्लेखनीय	-6632
andari	-6633
हमा	-6634
्यव	-6635
▁सजाय	-6636
▁198	-6637
▁review	-6638
▁हवाई	-6639
▁Afric	-6640
▁मर्	-6641
▁ap	-6642
▁लियो	-6643
▁यसैगरी	-6644
▁February	-6645
▁throughout	-6646
OR	-6647
▁व्यक्तिको	-6648
▁इट	-6649
▁Earlier	-6650
क्सा	-6651
▁sources	-6652
▁चर्च	-6653
▁सबैलाई	-6654
▁norm	-6655
वेक्षण	-6656
▁प्रवाह	-6657
दको	-6658
▁Rec	-6659
▁prime	-6660
▁वाणिज्य	-6661
▁बाढी	-6662
▁lear	-6663
▁i	-6664
▁qual	-6665
.1	-6666
▁समन्व	-6667
मार्फत	-6668
▁creat	-6669
▁monitor	-6670
▁चौथो	-6671
▁कागजात	-6672
▁जेल	-6673
सिल	-6674
▁फु	-6675
ternet	-6676
▁Korea	-6677
ropriate	-6678
ड्ने	-6679
▁पुग्ने	-6680
▁host	-6681
▁टिम	-6682
▁KC	-6683
▁prevent	-6684
▁nations	-6685
▁तथ्याङ्क	-6686
▁खड्	-6687
▁पर्ख	-6688
▁इन्टरनेट	-6689
▁कसैलाई	-6690
▁Director	-6691
▁ill	-6692
▁refer	-6693
▁diplom	-6694
▁सुने	-6695
तिहासिक	-6696
▁operating	-6697
▁anti	-6698
▁swe	-6699
▁interview	-6700
वार्ड	-6701
▁लिमि	-6702
फोन	-6703
▁महो	-6704
orters	-6705
▁अवै	-6706
बास	-6707
▁आक	-6708
▁अस्पतालमा	-6709
▁प्रचार	-6710
▁introdu	-6711
किए	-6712
▁स्थितिमा	-6713
षित	-6714
▁largest	-6715
गरमा	-6716
त्तम	-6717
▁mass	-6718
▁चासो	-6719
▁fourth	-6720
रेन्द्र	-6721
▁patients	-6722
▁मुस्	-6723
▁June	-6724
फिक	-6725
जिनि	-6726
▁Bra	-6727
▁document	-6728
▁surpr	-6729
hood	-6730
▁UN	-6731
दारी	-6732
▁विभागले	-6733
chan	-6734
▁limited	-6735
▁directly	-6736
▁lower	-6737
▁consider	-6738
▁धितोपत्र	-6739
▁है	-6740
▁consult	-6741
▁निर्वाचित	-6742
▁nom	-6743
oyal	-6744
▁संगठ	-6745
▁हल्ला	-6746
▁consensus	-6747
ox	-6748
eared	-6749
▁हुनेछन्	-6750
▁सार्	-6751
▁Sup	-6752
▁नष्ट	-6753
▁Sur	-6754
▁sad	-6755
▁राखेर	-6756
.2	-6757
▁देहा	-6758
▁पाण्ड	-6759
▁dig	-6760
▁विनि	-6761
aya	-6762
▁स्थित	-6763
▁1,	-6764
▁dream	-6765
▁हुनाले	-6766
▁पसल	-6767
▁अविश	-6768
rew	-6769
▁रङ	-6770
▁डिसे	-6771
फे	-6772
▁प्रसारण	-6773
▁vac	-6774
▁नम्बर	-6775
डको	-6776
▁वर्षा	-6777
▁industrial	-6778
▁doz	-6779
hat	-6780
▁Only	-6781
▁खेल्न	-6782
▁शिव	-6783
atn	-6784
▁Those	-6785
▁Tod	-6786
▁Press	-6787
एनन्	-6788
▁थालेका	-6789
▁commission	-6790
ishing	-6791
▁वर्णन	-6792
▁विश्लेषण	-6793
▁मिल्	-6794
▁विभाजन	-6795
न्ती	-6796
▁Chandra	-6797
▁बहि	-6798
▁जग	-6799
verage	-6800
▁idea	-6801
▁सत	-6802
▁behav	-6803
▁context	-6804
ground	-6805
▁aspect	-6806
▁सुन्दर	-6807
▁evidence	-6808
▁style	-6809
▁माध्यम	-6810
▁२०६	-6811
▁certific	-6812
iet	-6813
टिङ	-6814
▁award	-6815
▁Form	-6816
▁color	-6817
▁advant	-6818
▁confir	-6819
PI	-6820
ौल	-6821
▁conditions	-6822
▁Home	-6823
person	-6824
▁प्रतिज्ञा	-6825
ethod	-6826
▁ल्याउने	-6827
▁internal	-6828
▁lat	-6829
▁देखे	-6830
▁commercial	-6831
पेली	-6832
▁नसकेको	-6833
▁Federation	-6834
▁जोडि	-6835
▁मोबा	-6836
▁individ	-6837
▁desp	-6838
पर्ने	-6839
साथै	-6840
▁बनाएर	-6841
हरूमध्ये	-6842
ayed	-6843
▁सदरमु	-6844
▁आयोगले	-6845
▁proposed	-6846
▁23	-6847
▁लेखा	-6848
▁Narayan	-6849
▁ब्रिटिश	-6850
anger	-6851
olve	-6852
▁conv	-6853
▁religious	-6854
back	-6855
bassad	-6856
▁Another	-6857
▁decre	-6858
▁tourists	-6859
▁परिण	-6860
▁उपनियम	-6861
▁लिमिटेड	-6862
▁निस्	-6863
▁paper	-6864
▁त्यस्ता	-6865
▁submitted	-6866
▁द्	-6867
▁analy	-6868
▁तीव्र	-6869
▁task	-6870
▁समूहले	-6871
▁ऐतिहासिक	-6872
ेदारी	-6873
▁शहरमा	-6874
▁cricket	-6875
▁गुणस्तर	-6876
▁खेल्	-6877
▁passeng	-6878
ches	-6879
▁नभएका	-6880
▁भारतमा	-6881
▁सेप्टेम्बर	-6882
▁changes	-6883
म्र	-6884
ald	-6885
▁सन्त	-6886
fort	-6887
▁protest	-6888
owers	-6889
book	-6890
▁path	-6891
▁त्यसले	-6892
▁सफा	-6893
▁Cont	-6894
▁fif	-6895
यन्त्र	-6896
▁Ac	-6897
aging	-6898
▁सूर्य	-6899
▁भारतले	-6900
▁तपाईंले	-6901
▁model	-6902
▁moving	-6903
▁वटा	-6904
▁माया	-6905
पान्तरण	-6906
▁धनी	-6907
aration	-6908
▁अदालतले	-6909
▁बौ	-6910
▁Hol	-6911
▁विविध	-6912
rie	-6913
▁हक	-6914
▁license	-6915
▁अप्र	-6916
▁कार्की	-6917
▁comb	-6918
▁scored	-6919
esc	-6920
वाही	-6921
तापूर्वक	-6922
▁domestic	-6923
▁गाह्रो	-6924
othes	-6925
▁तल्लो	-6926
▁flood	-6927
▁Trans	-6928
▁magazine	-6929
ows	-6930
▁दाऊ	-6931
▁लडाइ	-6932
▁League	-6933
माता	-6934
▁जरु	-6935
▁ruling	-6936
▁विजे	-6937
▁registered	-6938
▁chair	-6939
▁indic	-6940
▁गएका	-6941
▁Karki	-6942
▁समुद्र	-6943
▁Rel	-6944
igr	-6945
धिका	-6946
ently	-6947
▁प्ला	-6948
▁मिटर	-6949
▁पछ	-6950
▁fast	-6951
▁Chaud	-6952
▁अक्टोबर	-6953
urning	-6954
▁repeated	-6955
▁doesn	-6956
▁पूँजी	-6957
▁च्याम्पियन	-6958
▁हस्तान्तरण	-6959
▁बिस्तारै	-6960
▁युनि	-6961
▁crow	-6962
▁employee	-6963
एँ	-6964
घन	-6965
ल्पना	-6966
▁चिकित्सक	-6967
▁Bhut	-6968
▁ever	-6969
cell	-6970
▁sleep	-6971
▁video	-6972
▁rob	-6973
▁Chaudh	-6974
▁Rast	-6975
▁connect	-6976
▁manager	-6977
▁हुनुपर्ने	-6978
▁dire	-6979
▁नभई	-6980
▁युरोपेली	-6981
▁Day	-6982
▁Supreme	-6983
▁Local	-6984
▁agencies	-6985
▁जरुरी	-6986
▁secret	-6987
▁अवसरमा	-6988
▁compared	-6989
▁Tra	-6990
ropol	-6991
▁majority	-6992
▁Valley	-6993
▁वृ	-6994
▁भेला	-6995
▁pet	-6996
add	-6997
▁फर्का	-6998
▁सेन्ट	-6999
नाका	-7000
▁बढाउने	-7001
eds	-7002
गार	-7003
▁adj	-7004
▁५००	-7005
▁छोटो	-7006
▁घि	-7007
शिया	-7008
▁demanded	-7009
▁संवैधानिक	-7010
▁अदालतमा	-7011
▁पारेको	-7012
सँगको	-7013
▁opt	-7014
▁विस्त	-7015
▁policies	-7016
▁साँच्चिकै	-7017
दायिक	-7018
▁mill	-7019
▁दोषी	-7020
▁newsp	-7021
▁reform	-7022
▁occasion	-7023
▁justice	-7024
हरा	-7025
निम्	-7026
▁launched	-7027
▁चलिरहेको	-7028
लाले	-7029
▁टुक	-7030
▁doub	-7031
▁पुनराव	-7032
▁साझेदारी	-7033
▁गर्दैन	-7034
▁मेड	-7035
▁carry	-7036
▁कानून	-7037
▁हिमाल	-7038
mes	-7039
▁north	-7040
▁भण्डारी	-7041
▁Gy	-7042
wise	-7043
स्थापन	-7044
▁online	-7045
मिन	-7046
▁हिर्का	-7047
्यू	-7048
▁town	-7049
▁लेखिएको	-7050
▁demands	-7051
▁सशस्त्र	-7052
▁initiative	-7053
कहरूले	-7054
rect	-7055
▁यसो	-7056
▁cadres	-7057
uli	-7058
▁Ter	-7059
▁औसत	-7060
▁संयोजक	-7061
▁option	-7062
isl	-7063
▁Sah	-7064
▁प्रान्त	-7065
हण	-7066
सनले	-7067
▁About	-7068
▁व्याख्या	-7069
▁export	-7070
▁produced	-7071
वती	-7072
▁text	-7073
▁Pri	-7074
▁sun	-7075
▁phone	-7076
लाका	-7077
▁मेल	-7078
▁भन्नाले	-7079
▁मुक्त	-7080
▁satisf	-7081
BC	-7082
▁दिव	-7083
थम	-7084
▁dial	-7085
▁सडकमा	-7086
▁पहल	-7087
▁सालमा	-7088
चर	-7089
माको	-7090
▁हडताल	-7091
▁potential	-7092
▁तरिका	-7093
▁cities	-7094
▁छुट्या	-7095
▁priority	-7096
joy	-7097
▁पीडा	-7098
▁temple	-7099
▁विस्तृत	-7100
▁परिणत	-7101
ालो	-7102
▁coordin	-7103
▁rain	-7104
▁Bhandari	-7105
▁sust	-7106
▁आवास	-7107
▁विधि	-7108
▁Who	-7109
▁स्वर्ग	-7110
▁Service	-7111
▁infrastructure	-7112
▁prosper	-7113
▁बसो	-7114
▁सांस्कृतिक	-7115
▁rupees	-7116
▁municipality	-7117
▁श्रृंख	-7118
यमा	-7119
▁weapons	-7120
निम्ति	-7121
▁स्पे	-7122
▁Club	-7123
▁coun	-7124
▁withd	-7125
बिन	-7126
▁भक्त	-7127
▁Sm	-7128
▁हिसाब	-7129
▁chairman	-7130
▁Corporation	-7131
agers	-7132
लाग्दो	-7133
▁regional	-7134
▁wall	-7135
▁दिएर	-7136
▁vice	-7137
▁Under	-7138
▁क्रमश	-7139
▁decades	-7140
▁huge	-7141
▁hear	-7142
uals	-7143
▁cho	-7144
▁faith	-7145
▁obs	-7146
▁भन्सार	-7147
▁NC	-7148
iful	-7149
▁Tem	-7150
▁labor	-7151
enses	-7152
▁charge	-7153
▁dispute	-7154
▁pack	-7155
राइ	-7156
▁filed	-7157
▁cultural	-7158
▁suc	-7159
▁Delhi	-7160
▁image	-7161
▁wrote	-7162
नित	-7163
होर	-7164
▁चो	-7165
▁customers	-7166
▁questions	-7167
▁mist	-7168
त्कार	-7169
▁लडाइँ	-7170
▁attempt	-7171
▁विद्युत	-7172
▁bal	-7173
ग्ने	-7174
▁Today	-7175
▁दरबार	-7176
▁मौलिक	-7177
▁उनीहरु	-7178
▁Chaudhary	-7179
▁दीर्घकालीन	-7180
केट	-7181
▁रेड	-7182
ूर	-7183
▁कानूनी	-7184
कुल	-7185
▁method	-7186
ertain	-7187
▁महत्व	-7188
▁hotel	-7189
yn	-7190
▁Where	-7191
▁तिमीहरूलाई	-7192
न्सी	-7193
▁anc	-7194
▁solution	-7195
arel	-7196
▁shot	-7197
raw	-7198
▁Rana	-7199
▁महिनामा	-7200
▁संस्करण	-7201
▁murder	-7202
▁तर्फ	-7203
▁worth	-7204
▁instead	-7205
▁राज्यको	-7206
▁रह्यो	-7207
▁supply	-7208
▁interests	-7209
▁चल्	-7210
ables	-7211
वधान	-7212
▁बन्ने	-7213
▁घो	-7214
▁निष्कर्ष	-7215
▁Je	-7216
▁vote	-7217
▁thousands	-7218
ila	-7219
▁prob	-7220
▁entreprene	-7221
▁परमेश्वरको	-7222
देव	-7223
▁highest	-7224
▁generation	-7225
यौ	-7226
▁पहाडी	-7227
▁succeed	-7228
▁preparing	-7229
▁माल	-7230
▁firm	-7231
▁हामीसँग	-7232
▁completely	-7233
शुल्क	-7234
▁वायुसेवा	-7235
▁type	-7236
▁प्रकृति	-7237
▁अवैध	-7238
▁freed	-7239
▁कानुनी	-7240
▁ut	-7241
र्सि	-7242
▁एसि	-7243
▁ढोका	-7244
▁songs	-7245
▁पुस्ता	-7246
▁दायित्व	-7247
oj	-7248
ami	-7249
▁enjoy	-7250
एच	-7251
▁क्रियाकलाप	-7252
net	-7253
वस्तु	-7254
तान	-7255
▁Qu	-7256
▁squ	-7257
▁white	-7258
stant	-7259
▁mouth	-7260
rs	-7261
▁परिचय	-7262
▁सुरुमा	-7263
▁पुल	-7264
▁crowd	-7265
▁challen	-7266
▁appropriate	-7267
▁इन्ध	-7268
▁थप्नुभयो	-7269
▁आह	-7270
▁god	-7271
▁beat	-7272
▁identity	-7273
▁vir	-7274
▁tom	-7275
▁Women	-7276
▁नु	-7277
▁कहिलेका	-7278
▁capt	-7279
▁Adhik	-7280
▁base	-7281
▁जरि	-7282
▁हुनसक्छ	-7283
▁insurance	-7284
▁कोरि	-7285
▁advert	-7286
▁तपाईंको	-7287
▁राजमार्ग	-7288
▁alone	-7289
▁announce	-7290
▁सामान्यतया	-7291
rim	-7292
▁Pokh	-7293
▁debate	-7294
▁easily	-7295
▁shares	-7296
▁persons	-7297
झ्	-7298
▁चित	-7299
मावली	-7300
▁सिक्	-7301
▁पुगेका	-7302
abor	-7303
▁खारे	-7304
▁विमानस्थल	-7305
▁प्रावधान	-7306
eech	-7307
▁fig	-7308
▁showed	-7309
▁Will	-7310
▁मुटु	-7311
▁बस्ती	-7312
▁East	-7313
▁demon	-7314
▁carrying	-7315
▁निः	-7316
▁save	-7317
▁जटिल	-7318
▁प्रकट	-7319
▁sister	-7320
▁spokesman	-7321
▁सुनिश्चित	-7322
▁removed	-7323
ेन्द्र	-7324
▁Kar	-7325
▁समर्	-7326
युक्ति	-7327
▁despite	-7328
term	-7329
▁conducted	-7330
▁परमप्रभुको	-7331
▁expensive	-7332
▁रेखा	-7333
▁arrived	-7334
room	-7335
▁सबभन्दा	-7336
▁ship	-7337
▁emerg	-7338
lear	-7339
▁experien	-7340
▁माछा	-7341
▁convention	-7342
▁बसि	-7343
▁हातमा	-7344
▁फ्याँकि	-7345
▁Adhikari	-7346
▁anim	-7347
▁अर्ब	-7348
▁space	-7349
▁बाह	-7350
▁प्रवर्द्धन	-7351
anj	-7352
erve	-7353
indu	-7354
▁भग	-7355
▁आएर	-7356
▁जुलाई	-7357
ब्दी	-7358
▁थियौं	-7359
▁अहिलेको	-7360
▁strike	-7361
▁हेर्ने	-7362
भार	-7363
▁Administ	-7364
▁चरणमा	-7365
▁kid	-7366
▁सन्तु	-7367
▁संसदीय	-7368
▁understanding	-7369
▁धन्य	-7370
▁independent	-7371
▁भनेका	-7372
▁खत	-7373
▁चलाउने	-7374
▁ल्याएको	-7375
▁गएर	-7376
▁Stud	-7377
▁Union	-7378
▁प्रदू	-7379
▁कार्यालयले	-7380
anged	-7381
▁shop	-7382
▁goes	-7383
▁bit	-7384
▁इच्छा	-7385
▁शंका	-7386
▁distribution	-7387
▁बेर	-7388
▁ताजा	-7389
▁रातो	-7390
▁हुनुहु	-7391
▁त्रुटि	-7392
ुरू	-7393
▁collection	-7394
nings	-7395
▁मल्	-7396
▁meaning	-7397
pril	-7398
▁den	-7399
▁true	-7400
व्यक्ति	-7401
▁First	-7402
▁loans	-7403
▁सम्मेलनमा	-7404
▁girl	-7405
▁कारखा	-7406
परेको	-7407
▁अद्या	-7408
▁क्रमशः	-7409
गल	-7410
ato	-7411
▁Finance	-7412
▁नियुक्ति	-7413
कू	-7414
▁suffering	-7415
▁पिता	-7416
▁negoti	-7417
▁answer	-7418
▁£	-7419
▁wild	-7420
ondon	-7421
▁Park	-7422
▁मित्र	-7423
▁remains	-7424
▁इरान	-7425
▁scient	-7426
▁altern	-7427
▁किलोमिटर	-7428
▁सञ्चालक	-7429
ख्यक	-7430
▁regular	-7431
▁मन्त्रि	-7432
▁भौतिक	-7433
iction	-7434
▁सर्वोत्तम	-7435
▁UPI	-7436
▁coach	-7437
▁section	-7438
गुन	-7439
miss	-7440
▁सुदृ	-7441
ङ्का	-7442
▁eth	-7443
▁दण्ड	-7444
▁bringing	-7445
▁Saptari	-7446
.4	-7447
▁pick	-7448
▁चट्ट	-7449
▁dram	-7450
▁veget	-7451
▁reduce	-7452
लक	-7453
लियम	-7454
▁Kamal	-7455
▁अर्थात्	-7456
▁directed	-7457
▁tea	-7458
▁शता	-7459
▁Pandey	-7460
▁औद्योग	-7461
▁reasons	-7462
ंगो	-7463
▁moved	-7464
▁clothes	-7465
ल्डर	-7466
्वान	-7467
जाजत	-7468
▁Jer	-7469
▁prim	-7470
▁shock	-7471
ohol	-7472
usal	-7473
रुवा	-7474
▁card	-7475
▁lif	-7476
▁London	-7477
ends	-7478
नीको	-7479
ewhere	-7480
▁representatives	-7481
▁Ba	-7482
▁annual	-7483
▁nearly	-7484
▁benefit	-7485
स्ति	-7486
▁अद्यावधिक	-7487
▁Add	-7488
▁sons	-7489
▁trust	-7490
andal	-7491
▁गल्ती	-7492
हको	-7493
▁trou	-7494
लियो	-7495
▁गहिरो	-7496
▁remember	-7497
▁मैदान	-7498
डले	-7499
दले	-7500
शले	-7501
▁औंला	-7502
प्रै	-7503
▁leaving	-7504
मर	-7505
्यानल	-7506
▁आकाश	-7507
▁agricultural	-7508
oid	-7509
▁Camp	-7510
▁gar	-7511
▁Inst	-7512
▁त्यसरी	-7513
▁protection	-7514
▁traditional	-7515
▁सर्वेक्षण	-7516
▁रचना	-7517
cohol	-7518
▁जीवित	-7519
▁alle	-7520
▁fra	-7521
▁तिनका	-7522
▁estimated	-7523
▁जसलाई	-7524
▁status	-7525
▁charges	-7526
▁eval	-7527
▁repl	-7528
▁बढेर	-7529
▁appointed	-7530
▁teachers	-7531
ीकृत	-7532
▁बंग	-7533
▁lakh	-7534
▁wide	-7535
▁हेर्दा	-7536
▁Deputy	-7537
बाटै	-7538
▁Kir	-7539
▁प्रतिलिपि	-7540
▁हाउ	-7541
▁events	-7542
▁चट्टान	-7543
▁importance	-7544
▁ट्रया	-7545
▁समग्र	-7546
▁possibility	-7547
▁Russia	-7548
set	-7549
▁छुट्टै	-7550
▁लिएका	-7551
▁टेलिभिजन	-7552
▁continued	-7553
▁क्यान्सर	-7554
लगायतका	-7555
▁speech	-7556
law	-7557
AS	-7558
▁_	-7559
▁damage	-7560
▁नाउँ	-7561
वक्ता	-7562
▁Rules	-7563
▁eld	-7564
▁Tour	-7565
▁मोबाइल	-7566
▁मानक	-7567
िएका	-7568
▁April	-7569
▁destroyed	-7570
▁revolution	-7571
ula	-7572
▁नरा	-7573
कोलागि	-7574
▁eating	-7575
iture	-7576
rel	-7577
रीका	-7578
bit	-7579
▁वैदेशिक	-7580
▁कहिलेकाही	-7581
▁victory	-7582
▁UK	-7583
▁demonst	-7584
▁हुनुपर्दछ	-7585
▁चन्द्र	-7586
▁देखाउने	-7587
▁सम्पादन	-7588
▁गे	-7589
▁गयो	-7590
▁affect	-7591
ga	-7592
▁विद्यालयमा	-7593
ृति	-7594
power	-7595
▁बिता	-7596
▁personnel	-7597
▁Desp	-7598
anesh	-7599
▁feet	-7600
बारेमा	-7601
▁इजाजत	-7602
▁Britain	-7603
नीले	-7604
▁उद्य	-7605
rative	-7606
▁takes	-7607
▁challeng	-7608
▁write	-7609
▁carried	-7610
▁Gr	-7611
▁बू	-7612
▁rap	-7613
▁door	-7614
▁लगाइएको	-7615
▁authorities	-7616
▁खाता	-7617
▁average	-7618
ोध	-7619
▁मले	-7620
▁bird	-7621
▁इस्राए	-7622
▁mer	-7623
▁अपा	-7624
▁moment	-7625
▁मर्मत	-7626
▁caused	-7627
▁तै	-7628
▁सुना	-7629
▁जातीय	-7630
▁draw	-7631
▁फूल	-7632
▁केवल	-7633
तक	-7634
rule	-7635
▁punish	-7636
atever	-7637
▁Despite	-7638
▁followed	-7639
▁Look	-7640
▁जोडा	-7641
ampions	-7642
▁नस	-7643
▁मुलुकको	-7644
▁believed	-7645
▁औद्योगिक	-7646
▁receive	-7647
▁सामुदायिक	-7648
party	-7649
ाउनुहोस्	-7650
▁Democratic	-7651
▁४५	-7652
archy	-7653
▁वासिङ्ट	-7654
▁opening	-7655
▁bow	-7656
धारित	-7657
▁spirit	-7658
▁comment	-7659
ika	-7660
▁मण्ड	-7661
▁वी	-7662
pper	-7663
सनमा	-7664
▁जहाज	-7665
▁हुन्थ्यो	-7666
▁wis	-7667
▁क्रो	-7668
.3	-7669
▁proced	-7670
▁दिल्ली	-7671
rupt	-7672
▁signed	-7673
bassador	-7674
▁बीचमा	-7675
▁उत्पादक	-7676
aru	-7677
▁माघ	-7678
▁term	-7679
▁ended	-7680
▁चाहन्छन्	-7681
▁पदाधिकारी	-7682
दमा	-7683
▁Last	-7684
▁28	-7685
▁बुझ्न	-7686
▁looked	-7687
▁remove	-7688
▁मुख्यतया	-7689
▁पठाइ	-7690
▁Trump	-7691
▁तिनीहरूको	-7692
▁मन्त्रिपरि	-7693
ेदार	-7694
▁Work	-7695
▁mobile	-7696
▁श्रेष्ठले	-7697
▁हानि	-7698
▁spoke	-7699
▁credit	-7700
▁गणना	-7701
▁आह्वान	-7702
▁विजेता	-7703
▁सदा	-7704
दल	-7705
comm	-7706
▁behavior	-7707
▁धारा	-7708
▁constitutional	-7709
▁कविता	-7710
▁समन्वय	-7711
onse	-7712
मिरे	-7713
▁Art	-7714
▁विरा	-7715
ping	-7716
वेयर	-7717
▁गर्व	-7718
▁एयर	-7719
▁कम्प्युटर	-7720
▁दलित	-7721
▁सिने	-7722
▁वर्षदेखि	-7723
▁hero	-7724
▁डलरको	-7725
▁बौद्ध	-7726
▁26	-7727
▁wel	-7728
स्थान	-7729
▁श्रीमती	-7730
▁मुद्दामा	-7731
▁चीनको	-7732
्यारे	-7733
लिस	-7734
सकेपछि	-7735
कारि	-7736
▁emb	-7737
▁भोज	-7738
▁NE	-7739
हेन्द्र	-7740
▁France	-7741
गन	-7742
▁Trib	-7743
▁जाँदा	-7744
▁television	-7745
▁मार्फत	-7746
▁studying	-7747
▁कम्युनिष्ट	-7748
aug	-7749
istics	-7750
▁levels	-7751
▁parliamentary	-7752
कर्पोरे	-7753
▁agency	-7754
▁क्यालि	-7755
▁उल्ल	-7756
▁Its	-7757
▁fru	-7758
▁शताब्दी	-7759
ीको	-7760
▁रंग	-7761
▁गरिब	-7762
अधिकार	-7763
▁प्रशंसा	-7764
ारु	-7765
▁शत्रु	-7766
▁१९७	-7767
▁Hindu	-7768
▁acqu	-7769
▁इन्कर्पोरे	-7770
wide	-7771
▁sacri	-7772
▁इन्जिनि	-7773
▁महासचिव	-7774
gar	-7775
▁टुक्रा	-7776
वायु	-7777
▁establishment	-7778
mar	-7779
▁Whe	-7780
ayat	-7781
सिद्ध	-7782
▁Red	-7783
▁छेउ	-7784
▁unity	-7785
▁beautiful	-7786
▁संघले	-7787
formation	-7788
▁अभिने	-7789
▁roads	-7790
▁लिए	-7791
▁तस्वीर	-7792
▁operate	-7793
▁प्रदूषण	-7794
▁fine	-7795
▁पराज	-7796
▁पर्दैन	-7797
इस	-7798
▁famous	-7799
▁समयसम्म	-7800
▁इन्कर्पोरेटि	-7801
▁छौ	-7802
▁व्यवस्थाप	-7803
▁राती	-7804
▁struggle	-7805
▁संविधानसभा	-7806
जुद	-7807
▁पौडेल	-7808
▁बेलायत	-7809
mon	-7810
▁छाड	-7811
▁Dhar	-7812
▁helped	-7813
▁अगस्ट	-7814
▁होस्ट	-7815
▁राजदूत	-7816
▁तत्कालीन	-7817
uled	-7818
ँस	-7819
▁विकासको	-7820
▁वर्षे	-7821
▁reports	-7822
▁ओलीले	-7823
▁amendment	-7824
▁gun	-7825
▁powers	-7826
▁Chap	-7827
▁तुल्या	-7828
▁उज	-7829
uf	-7830
▁साउ	-7831
▁Sal	-7832
▁jail	-7833
▁जीवनमा	-7834
▁सुश्री	-7835
लम्बन	-7836
केर	-7837
भाविक	-7838
▁dialog	-7839
▁उपन्यास	-7840
▁©	-7841
▁Sir	-7842
▁Asian	-7843
ounds	-7844
▁सोधे	-7845
▁broken	-7846
▁जलवायु	-7847
▁सर्वसाधारण	-7848
▁स्वतन्त्रता	-7849
▁अने	-7850
▁accord	-7851
▁त्रिभु	-7852
स्यौ	-7853
▁die	-7854
▁हिस्	-7855
▁तुरुन्तै	-7856
▁KP	-7857
▁Ms	-7858
▁Three	-7859
ैंचा	-7860
▁Ser	-7861
▁भएकोले	-7862
▁विश्लेष	-7863
ault	-7864
▁cash	-7865
▁हरियो	-7866
▁religion	-7867
▁san	-7868
sp	-7869
ugg	-7870
▁गतिविधि	-7871
▁बनाइएको	-7872
▁touch	-7873
▁राख्नु	-7874
▁industries	-7875
▁27	-7876
▁मानिसको	-7877
▁documents	-7878
▁चरि	-7879
▁जानु	-7880
▁सान	-7881
▁स्ना	-7882
▁३२	-7883
ilit	-7884
▁poll	-7885
▁गाविस	-7886
▁चलाउन	-7887
▁मार्च	-7888
▁selling	-7889
▁discussed	-7890
ategy	-7891
▁सावधानी	-7892
▁90	-7893
▁बसेको	-7894
▁fulfill	-7895
▁यिन	-7896
▁alcohol	-7897
aled	-7898
▁निकायले	-7899
abin	-7900
▁direction	-7901
▁Fund	-7902
▁knew	-7903
▁०५	-7904
porate	-7905
▁sched	-7906
▁turned	-7907
▁journey	-7908
▁response	-7909
▁communities	-7910
▁ड्राइभर	-7911
▁समी	-7912
▁सक्छौं	-7913
▁लन्ड	-7914
▁सत्त	-7915
▁संस्थाको	-7916
लीय	-7917
▁इज	-7918
▁नेपाललाई	-7919
▁स्कट	-7920
orthern	-7921
लादेश	-7922
▁गठबन्ध	-7923
▁sometimes	-7924
arant	-7925
▁England	-7926
▁blockade	-7927
▁educational	-7928
▁Mahe	-7929
▁देख्न	-7930
▁यसकारण	-7931
kh	-7932
haps	-7933
▁खि	-7934
▁पेट्रो	-7935
▁मानिसले	-7936
▁गाउँमा	-7937
▁नाकाबन्दी	-7938
▁निम्न	-7939
▁काँ	-7940
▁hung	-7941
▁Gaut	-7942
▁लागेका	-7943
▁तोकिएको	-7944
icians	-7945
हिने	-7946
▁धन्यवाद	-7947
▁सदरमुकाम	-7948
▁steps	-7949
▁बोलपत्र	-7950
चाइ	-7951
▁बैंकले	-7952
.7	-7953
ङ्गो	-7954
वाला	-7955
▁नारायण	-7956
▁declared	-7957
▁उत्तरी	-7958
धिकारिक	-7959
▁Khadka	-7960
तले	-7961
gypt	-7962
▁गाउ	-7963
▁तामा	-7964
▁shoot	-7965
▁ministers	-7966
makers	-7967
▁drinking	-7968
▁फ्	-7969
▁विज्ञप्	-7970
▁computer	-7971
पयोग	-7972
▁Gautam	-7973
▁31	-7974
▁पूर्वी	-7975
▁प्रकारका	-7976
सद्	-7977
▁जिम्मेवार	-7978
▁जाग	-7979
▁स्वीकृति	-7980
▁नक्क	-7981
▁नजिकै	-7982
▁markets	-7983
▁नोभेम्बर	-7984
▁महेन्द्र	-7985
▁illegal	-7986
▁औपचारिक	-7987
50	-7988
▁आय	-7989
▁Ham	-7990
▁पहाड	-7991
▁खाद्या	-7992
क्कै	-7993
▁books	-7994
▁60	-7995
वाट	-7996
chol	-7997
▁mobil	-7998
aced	-7999
▁Ben	-8000
बै	-8001
hedu	-8002
▁prem	-8003
▁career	-8004
▁पाकिस्तान	-8005
▁ways	-8006
yl	-8007
▁af	-8008
▁ign	-8009
▁फागुन	-8010
▁referred	-8011
दु	-8012
▁blind	-8013
▁निश्च	-8014
▁इस्राएलका	-8015
▁Aff	-8016
▁मंगलबार	-8017
▁शक्तिशाली	-8018
▁survey	-8019
▁प्रतियोगिता	-8020
oke	-8021
▁समाजमा	-8022
▁respond	-8023
गञ्ज	-8024
▁लक्षित	-8025
▁जीवनको	-8026
▁७०	-8027
▁मासु	-8028
▁चाहिँ	-8029
▁कुराको	-8030
▁proceed	-8031
▁Lama	-8032
hedule	-8033
▁sides	-8034
▁south	-8035
▁खाद्यान्न	-8036
sy	-8037
▁danger	-8038
▁सञ्चालित	-8039
▁journalists	-8040
uri	-8041
▁freedom	-8042
▁ट्रम्प	-8043
इलो	-8044
न्तित	-8045
▁Turk	-8046
▁संगीत	-8047
▁settlement	-8048
uclear	-8049
▁नब	-8050
▁दुइ	-8051
▁claims	-8052
▁निःशुल्क	-8053
nic	-8054
▁जरिवा	-8055
र्ति	-8056
▁Organ	-8057
▁अनुमो	-8058
▁परिभाषा	-8059
▁अख्	-8060
▁सञ्	-8061
▁surv	-8062
▁बढ्न	-8063
▁Egypt	-8064
▁मस्यौ	-8065
off	-8066
र्नु	-8067
▁पिट	-8068
▁animals	-8069
▁चिन्तित	-8070
▁operated	-8071
▁प्रतिस्थापन	-8072
CE	-8073
hab	-8074
eria	-8075
त्सव	-8076
सिना	-8077
▁Mich	-8078
▁रणनीति	-8079
वार्य	-8080
▁Temple	-8081
▁underst	-8082
पत्ति	-8083
▁राहत	-8084
विहीन	-8085
विद्यु	-8086
▁traffic	-8087
▁opin	-8088
itness	-8089
▁शिखर	-8090
▁offices	-8091
ण्ट	-8092
▁खना	-8093
▁express	-8094
▁नियमावली	-8095
रिङ	-8096
▁दशकमा	-8097
कियो	-8098
▁Also	-8099
▁बिदा	-8100
ties	-8101
itude	-8102
▁सम्पाद	-8103
▁स्तरमा	-8104
▁ability	-8105
▁correct	-8106
▁Security	-8107
राष्ट्र	-8108
▁experts	-8109
▁अनिवार्य	-8110
▁सहर	-8111
▁नगरे	-8112
▁भाषण	-8113
rary	-8114
▁बाबजुद	-8115
iff	-8116
▁Net	-8117
▁fle	-8118
▁मृत	-8119
▁star	-8120
▁स्ट्रि	-8121
▁east	-8122
▁double	-8123
▁committed	-8124
▁fem	-8125
▁bab	-8126
going	-8127
▁ज्ञा	-8128
▁existing	-8129
ols	-8130
amer	-8131
ghan	-8132
▁साँझ	-8133
▁Child	-8134
▁पछ्या	-8135
▁साझेदार	-8136
लेट	-8137
▁ep	-8138
▁Som	-8139
▁Mark	-8140
▁संगठन	-8141
ann	-8142
imp	-8143
astic	-8144
▁teams	-8145
▁प्रचलित	-8146
▁८०	-8147
phone	-8148
▁अभिन	-8149
▁films	-8150
▁judge	-8151
▁मस्यौदा	-8152
▁soldiers	-8153
▁त्रिभुवन	-8154
▁tend	-8155
▁देवी	-8156
▁प्	-8157
▁soft	-8158
▁आधिकारिक	-8159
▁investors	-8160
पथ	-8161
lied	-8162
▁अग्	-8163
▁Both	-8164
पश्चिम	-8165
▁संघका	-8166
▁प्रशस्त	-8167
▁देखाउन	-8168
▁केपी	-8169
▁Mahar	-8170
▁@	-8171
▁ge	-8172
part	-8173
▁Cur	-8174
▁आजको	-8175
▁चार्ज	-8176
▁profit	-8177
gin	-8178
ंदा	-8179
▁sea	-8180
▁names	-8181
▁doctor	-8182
▁अष्ट्रे	-8183
▁arrangements	-8184
▁growing	-8185
्यौं	-8186
▁विनाश	-8187
ालको	-8188
▁दिशा	-8189
▁brand	-8190
▁opportunities	-8191
▁टाँ	-8192
▁हेरि	-8193
.6	-8194
्म	-8195
किने	-8196
▁agend	-8197
▁रूख	-8198
arat	-8199
इन्छ	-8200
▁तत्व	-8201
▁पात्र	-8202
ociated	-8203
▁Vill	-8204
पक्षीय	-8205
▁विच	-8206
▁खेलकु	-8207
▁exchange	-8208
▁Administration	-8209
लभ	-8210
ris	-8211
▁vers	-8212
▁कक्ष	-8213
▁हस्तक्षेप	-8214
▁चाहने	-8215
▁केन्द्रमा	-8216
▁आधारभूत	-8217
कलाई	-8218
▁Chitwan	-8219
▁साझा	-8220
डर	-8221
▁अपरि	-8222
▁focus	-8223
▁yourself	-8224
▁असह	-8225
▁लगाए	-8226
▁goals	-8227
▁Arab	-8228
▁presence	-8229
▁निको	-8230
▁बसोबास	-8231
▁dro	-8232
▁खेल्ने	-8233
▁पश्चिमी	-8234
RNew	-8235
▁Lim	-8236
▁constructed	-8237
▁सै	-8238
▁ग्री	-8239
▁बताइएको	-8240
▁harm	-8241
▁सहायता	-8242
standing	-8243
▁challenge	-8244
▁गाई	-8245
▁sense	-8246
▁spend	-8247
▁Australia	-8248
▁अच	-8249
akal	-8250
▁दान	-8251
ulated	-8252
▁multi	-8253
▁continu	-8254
▁Dar	-8255
▁टर्की	-8256
itan	-8257
▁views	-8258
▁जलविद्यु	-8259
▁साता	-8260
▁खोज्ने	-8261
▁अनुमोदन	-8262
ivity	-8263
ole	-8264
▁चिसो	-8265
▁relief	-8266
▁sitting	-8267
▁Bhak	-8268
▁cell	-8269
▁सहकार्य	-8270
▁powerful	-8271
र्ती	-8272
▁Ang	-8273
▁सदन	-8274
▁stage	-8275
▁married	-8276
▁देखाउँछ	-8277
▁Management	-8278
▁Met	-8279
ented	-8280
▁शरण	-8281
▁सामेल	-8282
▁नं	-8283
▁पुगे	-8284
▁बाहेक	-8285
▁Che	-8286
▁अरब	-8287
▁corn	-8288
▁pra	-8289
▁किसिमको	-8290
▁काठमाडौंमा	-8291
kash	-8292
▁रोब	-8293
▁क्ला	-8294
▁discussions	-8295
▁flo	-8296
▁कमि	-8297
▁commitment	-8298
rench	-8299
▁कपडा	-8300
सम्मको	-8301
▁अस्ति	-8302
▁latest	-8303
▁उन्न	-8304
▁हज	-8305
▁PRNew	-8306
▁planning	-8307
wood	-8308
रेन्ट	-8309
▁डरा	-8310
▁emphas	-8311
▁nar	-8312
▁understood	-8313
esty	-8314
▁quickly	-8315
▁हृ	-8316
▁पोखरा	-8317
▁desire	-8318
▁छै	-8319
▁राजाको	-8320
▁Geor	-8321
▁यसबाट	-8322
▁ढुङ्गा	-8323
▁यन्त्र	-8324
▁ग्रे	-8325
▁draft	-8326
▁परिभाषित	-8327
थित	-8328
inary	-8329
▁पढ्न	-8330
▁reduced	-8331
▁monarchy	-8332
मण्ड	-8333
▁1979	-8334
▁locals	-8335
▁fuel	-8336
▁Acharya	-8337
▁mountains	-8338
time	-8339
▁सत्र	-8340
▁Janak	-8341
ढे	-8342
▁Shak	-8343
-3	-8344
सला	-8345
▁अप्रि	-8346
▁बलपूर्वक	-8347
▁सहित	-8348
▁holding	-8349
▁प्रतिबद्धता	-8350
lines	-8351
▁पोखरे	-8352
ancy	-8353
▁कडा	-8354
▁मधेसी	-8355
▁Social	-8356
▁Whether	-8357
▁चाहन्छु	-8358
▁पर्न	-8359
▁पारे	-8360
▁सबैको	-8361
▁resc	-8362
iation	-8363
▁इन्धन	-8364
▁डेटा	-8365
▁गरिदि	-8366
▁truth	-8367
▁participate	-8368
▁चेत	-8369
pir	-8370
▁Face	-8371
▁crime	-8372
▁बनेका	-8373
▁article	-8374
्यारो	-8375
▁यथार्थ	-8376
▁लगाएको	-8377
erce	-8378
▁sports	-8379
▁थापाले	-8380
झ्याल	-8381
▁milk	-8382
▁cancer	-8383
▁हल	-8384
▁defin	-8385
▁हासिल	-8386
cha	-8387
▁आर्जन	-8388
▁दर्	-8389
▁cat	-8390
▁हैन	-8391
▁normal	-8392
▁Lt	-8393
▁appears	-8394
▁function	-8395
न्नु	-8396
▁approval	-8397
नेको	-8398
▁डाक्टर	-8399
▁offering	-8400
▁एल्	-8401
▁Afghan	-8402
igration	-8403
▁notice	-8404
▁programme	-8405
▁bul	-8406
▁देहाय	-8407
▁कुराका	-8408
▁सिट	-8409
▁Federal	-8410
▁candidate	-8411
hav	-8412
ब्रे	-8413
light	-8414
ola	-8415
यती	-8416
ladesh	-8417
▁Law	-8418
▁laugh	-8419
▁track	-8420
▁पाइने	-8421
▁bomb	-8422
▁probably	-8423
चालित	-8424
▁gather	-8425
▁बेलामा	-8426
▁Justice	-8427
▁बसेर	-8428
▁समेट	-8429
▁खारेज	-8430
▁माओवादीको	-8431
नाम	-8432
▁७५	-8433
▁कुकुर	-8434
come	-8435
▁थपि	-8436
▁एकीकृत	-8437
▁छान	-8438
▁else	-8439
फर	-8440
फोर्	-8441
▁mach	-8442
▁remained	-8443
दद	-8444
▁छिन्	-8445
▁dance	-8446
▁surround	-8447
▁teaching	-8448
ध्यापक	-8449
▁pil	-8450
▁Ob	-8451
atra	-8452
▁wood	-8453
▁कुमार	-8454
▁conclud	-8455
▁Bangladesh	-8456
▁स्पर्	-8457
चौ	-8458
▁adopted	-8459
▁scheduled	-8460
▁esc	-8461
नीमा	-8462
inton	-8463
वेदनशील	-8464
▁उहा	-8465
▁specified	-8466
▁गोर	-8467
▁pit	-8468
▁राजी	-8469
▁equip	-8470
▁union	-8471
atnagar	-8472
▁उनीहरुले	-8473
The	-8474
▁stra	-8475
porary	-8476
▁Malays	-8477
▁Internet	-8478
ING	-8479
▁bag	-8480
▁occur	-8481
▁effort	-8482
▁unc	-8483
▁मौसम	-8484
▁विरुद्ध	-8485
कां	-8486
mark	-8487
▁म्य	-8488
▁reve	-8489
▁आचार्य	-8490
म्बु	-8491
▁doctors	-8492
▁२०२	-8493
▁couple	-8494
▁expend	-8495
▁निर्वाच	-8496
▁promotion	-8497
craft	-8498
▁सक्दछ	-8499
शित	-8500
▁Ash	-8501
▁cooper	-8502
▁कार्यमा	-8503
▁जन्मे	-8504
▁लगाएर	-8505
▁थुप्रै	-8506
▁बगैंचा	-8507
▁बाटोमा	-8508
▁professional	-8509
▁size	-8510
▁caste	-8511
▁rates	-8512
▁अन्न	-8513
ansion	-8514
▁household	-8515
▁benefits	-8516
▁equal	-8517
▁बैठकले	-8518
▁प्रोत्साहित	-8519
ER	-8520
▁types	-8521
▁सस्तो	-8522
▁विद्यमान	-8523
raid	-8524
▁lik	-8525
▁२००५	-8526
▁Royal	-8527
▁दुर्व	-8528
सङ्ख्या	-8529
▁lay	-8530
▁integr	-8531
▁बरु	-8532
▁depos	-8533
▁रमाइलो	-8534
▁suffered	-8535
ोषण	-8536
हरुका	-8537
▁नेतृत्वमा	-8538
UR	-8539
सीमा	-8540
युद्ध	-8541
▁millions	-8542
▁Institute	-8543
▁पाप	-8544
▁items	-8545
कोट	-8546
▁जै	-8547
▁sky	-8548
▁गुरुङ	-8549
▁Gul	-8550
▁बुट	-8551
▁भत्	-8552
aha	-8553
▁संग्रह	-8554
▁कारा	-8555
ateral	-8556
▁youths	-8557
▁hearing	-8558
▁Forum	-8559
▁हटाउन	-8560
फोर्निया	-8561
▁measures	-8562
▁Biratnagar	-8563
▁receiving	-8564
▁certificate	-8565
bassy	-8566
▁आफैँ	-8567
▁table	-8568
▁Ste	-8569
▁original	-8570
▁विद्युत्	-8571
▁रूपान्तरण	-8572
▁participation	-8573
▁biggest	-8574
▁believes	-8575
▁dark	-8576
▁राम्र	-8577
▁सञ्झ्याल	-8578
▁गाँ	-8579
▁शिवि	-8580
▁phase	-8581
▁लिखित	-8582
▁century	-8583
▁पार्टीले	-8584
▁ठोस	-8585
▁सीप	-8586
▁Tele	-8587
▁कल्पना	-8588
▁जुनसुकै	-8589
▁Count	-8590
▁Dharan	-8591
▁climate	-8592
▁अंक	-8593
venth	-8594
▁Prem	-8595
▁cooperation	-8596
▁क्यालिफोर्निया	-8597
ष्णु	-8598
▁एकता	-8599
▁winning	-8600
▁Pun	-8601
▁जला	-8602
▁strategy	-8603
▁सन्दर्भमा	-8604
विष्ट	-8605
▁longer	-8606
▁सेवाको	-8607
asi	-8608
▁गौतम	-8609
न्तव्य	-8610
▁honor	-8611
▁screen	-8612
▁collected	-8613
▁profession	-8614
▁pan	-8615
पुरमा	-8616
▁Journ	-8617
चो	-8618
▁grant	-8619
ici	-8620
सम्भव	-8621
▁पाण्डे	-8622
▁माटो	-8623
▁किशोर	-8624
▁dismiss	-8625
▁असन्तु	-8626
▁feeling	-8627
▁दूध	-8628
▁partners	-8629
ores	-8630
▁बुद्ध	-8631
▁Tamang	-8632
▁resign	-8633
▁basic	-8634
▁talking	-8635
▁निर्माता	-8636
त्तिकै	-8637
▁River	-8638
▁भनिएको	-8639
स्थितिमा	-8640
▁officers	-8641
▁सिमा	-8642
rid	-8643
▁जुट	-8644
igence	-8645
▁afraid	-8646
▁attacks	-8647
▁समीक्षा	-8648
▁अभिव्यक्ति	-8649
▁Affairs	-8650
▁उपस्थिति	-8651
▁प्रतिष्ठान	-8652
▁west	-8653
▁alleged	-8654
athe	-8655
जनको	-8656
▁enem	-8657
▁ग्रि	-8658
ports	-8659
▁spending	-8660
▁Rastra	-8661
▁जनसङ्ख्या	-8662
▁Gold	-8663
oman	-8664
▁तार	-8665
▁argu	-8666
oul	-8667
रुपमा	-8668
▁Second	-8669
▁mechan	-8670
▁विगतमा	-8671
▁विभागका	-8672
▁नगद	-8673
▁निजा	-8674
▁मध्ये	-8675
▁Instead	-8676
▁reading	-8677
ears	-8678
▁शारी	-8679
▁ह्वा	-8680
▁कामको	-8681
▁राखेका	-8682
▁साक्षी	-8683
pro	-8684
▁duty	-8685
▁मोदी	-8686
▁showing	-8687
▁ओग	-8688
▁अन्ततः	-8689
▁प्रसिद्ध	-8690
▁चरित्र	-8691
▁मानिन्छ	-8692
cel	-8693
एनएन	-8694
▁inn	-8695
fully	-8696
▁El	-8697
▁Def	-8698
▁प्रतिवेद	-8699
▁compens	-8700
uj	-8701
▁मधेशी	-8702
▁यसर्थ	-8703
▁studies	-8704
▁Represent	-8705
▁TV	-8706
▁बाली	-8707
▁costs	-8708
▁दुर्घटना	-8709
रव	-8710
णविक	-8711
▁थाल्यो	-8712
▁रेल	-8713
▁driver	-8714
▁सफ्ट	-8715
.8	-8716
▁दै	-8717
▁schol	-8718
▁relating	-8719
▁सहभागिता	-8720
▁सृ	-8721
कालमा	-8722
▁mort	-8723
▁lands	-8724
▁अख्तियार	-8725
▁कुट	-8726
▁French	-8727
▁नगरेको	-8728
ब्बर	-8729
▁Dis	-8730
▁बढ्ने	-8731
▁आणविक	-8732
▁नवीकरण	-8733
▁bridge	-8734
मिति	-8735
▁मोर	-8736
जनालाई	-8737
▁बृद्धि	-8738
▁Road	-8739
▁विशि	-8740
▁सकिँदैन	-8741
▁पूजाहारी	-8742
▁armed	-8743
▁owners	-8744
▁either	-8745
▁nuclear	-8746
▁Deep	-8747
▁stone	-8748
सिं	-8749
ikram	-8750
▁Rights	-8751
▁सल्लाहकार	-8752
level	-8753
ारायण	-8754
▁घाटा	-8755
▁गर्नुपर्नेछ	-8756
▁science	-8757
▁शारीरिक	-8758
aka	-8759
▁sustain	-8760
▁रङ्ग	-8761
▁agriculture	-8762
▁२००८	-8763
ks	-8764
▁फोहोर	-8765
▁ensure	-8766
▁college	-8767
▁Yes	-8768
▁गरेनन्	-8769
▁planned	-8770
▁session	-8771
▁विकासमा	-8772
▁division	-8773
▁Front	-8774
▁Muk	-8775
▁ओर्	-8776
▁ढाँच	-8777
▁फायर	-8778
▁गर्यौं	-8779
▁निर्भर	-8780
▁eastern	-8781
केटी	-8782
▁लगायतका	-8783
co	-8784
क्सि	-8785
बमोजिम	-8786
▁क्लिन्ट	-8787
▁परिस्थिति	-8788
▁aim	-8789
▁Techn	-8790
▁#	-8791
▁Calif	-8792
▁डरलाग्दो	-8793
atar	-8794
▁बनाए	-8795
▁हुला	-8796
itt	-8797
▁कमी	-8798
▁till	-8799
▁monitoring	-8800
ES	-8801
न्दू	-8802
▁नसक्	-8803
▁scene	-8804
▁Communist	-8805
▁कार्यक्रमको	-8806
▁homes	-8807
▁consumers	-8808
▁भ्या	-8809
ademy	-8810
▁audience	-8811
▁मन्त्रिपरिषद्	-8812
▁खेत	-8813
▁मुद्र	-8814
▁agenda	-8815
▁deploy	-8816
▁loan	-8817
▁फ्लो	-8818
्नुहोस्	-8819
▁अँ	-8820
▁ढंग	-8821
▁suffer	-8822
▁निश्चय	-8823
▁परिचालन	-8824
▁तिनले	-8825
▁बनाएका	-8826
ङ्ख	-8827
मारी	-8828
▁dog	-8829
▁Modi	-8830
▁सधैं	-8831
▁झण्डा	-8832
▁स्मृति	-8833
▁Lam	-8834
▁बन्दुक	-8835
▁सकेनन्	-8836
चका	-8837
▁2005	-8838
iter	-8839
▁Prog	-8840
▁स्कूल	-8841
usi	-8842
▁धके	-8843
▁मरे	-8844
▁प्रबन्धक	-8845
▁विश्वा	-8846
न्डा	-8847
▁accordance	-8848
fall	-8849
▁radio	-8850
▁जय	-8851
▁Char	-8852
▁tomorrow	-8853
▁गर्नेछन्	-8854
▁programmes	-8855
▁मनोर	-8856
▁लैजा	-8857
▁speed	-8858
▁अंग्रे	-8859
▁इराकमा	-8860
▁tree	-8861
▁नाफा	-8862
▁नेतृत्वको	-8863
▁जिल्लाका	-8864
ique	-8865
rec	-8866
ेशन	-8867
mitted	-8868
▁प्रिमि	-8869
▁concern	-8870
▁restaur	-8871
▁killing	-8872
▁approved	-8873
श्वर	-8874
▁मेडिकल	-8875
▁require	-8876
मार्ट	-8877
वृत्ति	-8878
▁समारो	-8879
ifying	-8880
▁clearly	-8881
▁customs	-8882
▁इजाजतपत्र	-8883
▁पोर्ट	-8884
▁determined	-8885
षे	-8886
▁धू	-8887
▁घरे	-8888
ography	-8889
▁निवेदन	-8890
काई	-8891
मिला	-8892
▁looks	-8893
▁equipment	-8894
ब्ब	-8895
▁Cap	-8896
▁जनव	-8897
▁आँक	-8898
▁बहस	-8899
▁Tarai	-8900
▁saf	-8901
▁अप्	-8902
▁कोठामा	-8903
▁Journal	-8904
न्डो	-8905
शाला	-8906
▁box	-8907
▁चरा	-8908
▁पति	-8909
▁cold	-8910
▁Ltd	-8911
▁fees	-8912
▁टिभी	-8913
▁hyd	-8914
▁यरू	-8915
▁उद्धार	-8916
▁Like	-8917
▁सम्पदा	-8918
▁brothers	-8919
▁जनक	-8920
▁पौ	-8921
ript	-8922
▁फेसब	-8923
adh	-8924
▁दलका	-8925
स्तरीय	-8926
▁महारा	-8927
▁Musl	-8928
▁stick	-8929
▁बरा	-8930
स्वरूप	-8931
▁तरकारी	-8932
▁मल	-8933
ग्रहण	-8934
▁filled	-8935
20	-8936
▁Bel	-8937
ailing	-8938
ona	-8939
लीको	-8940
▁स्वदेश	-8941
▁दर्शन	-8942
▁नियन्त्रणमा	-8943
unt	-8944
▁डलरमा	-8945
▁विशाल	-8946
▁Former	-8947
▁Western	-8948
▁करी	-8949
▁lawy	-8950
ancing	-8951
▁Facebook	-8952
▁केटाकेटी	-8953
fortable	-8954
▁keeping	-8955
▁examination	-8956
▁लुट	-8957
▁passengers	-8958
▁+	-8959
▁window	-8960
▁द्रष्ट	-8961
▁liber	-8962
▁मानवअधिकार	-8963
▁race	-8964
▁learn	-8965
▁ब्राउ	-8966
▁विशिष्ट	-8967
imire	-8968
▁feat	-8969
▁इराकी	-8970
FA	-8971
▁tick	-8972
▁श्रेणी	-8973
-0	-8974
पात	-8975
▁ताप	-8976
▁बाँध	-8977
▁autom	-8978
▁अत्यधिक	-8979
▁महिनाको	-8980
▁नोट	-8981
▁सार	-8982
▁लागे	-8983
▁guarant	-8984
▁बला	-8985
▁दिगो	-8986
▁Which	-8987
▁म्याद	-8988
awal	-8989
oned	-8990
▁परिवारका	-8991
▁decisions	-8992
▁victim	-8993
▁	-8994
e	-8995
ा	-8996
t	-8997
a	-8998
्	-8999
o	-9000
i	-9001
र	-9002
n	-9003
s	-9004
r	-9005
न	-9006
क	-9007
h	-9008
ि	-9009
l	-9010
d	-9011
े	-9012
स	-9013
म	-9014
ल	-9015
ो	-9016
त	-9017
c	-9018
u	-9019
य	-9020
प	-9021
m	-9022
p	-9023
f	-9024
ह	-9025
ु	-9026
g	-9027
ग	-9028
ी	-9029
व	-9030
,	-9031
द	-9032
y	-9033
w	-9034
ब	-9035
b	-9036
.	-9037
ज	-9038
v	-9039
भ	-9040
छ	-9041
ट	-9042
ए	-9043
।	-9044
अ	-9045
ै	-9046
उ	-9047
ू	-9048
k	-9049
श	-9050
च	-9051
थ	-9052
ध	-9053
ष	-9054
ड	-9055
ख	-9056
आ	-9057
ँ	-9058
;	-9059
ई	-9060
ं	-9061
ण	-9062
&	-9063
T	-9064
फ	-9065
S	-9066
-	-9067
इ	-9068
A	-9069
I	-9070
C	-9071
M	-9072
N	-9073
P	-9074
B	-9075
q	-9076
ठ	-9077
ौ	-9078
0	-9079
D	-9080
घ	-9081
०	-9082
x	-9083
R	-9084
(	-9085
)	-9086
H	-9087
१	-9088
j	-9089
1	-9090
ङ	-9091
ृ	-9092
"	-9093
२	-9094
ढ	-9095
W	-9096
K	-9097
G	-9098
L	-9099
2	-9100
F	-9101
E	-9102
झ	-9103
O	-9104
z	-9105
ञ	-9106
:	-9107
U	-9108
J	-9109
५	-9110
5	-9111
9	-9112
3	-9113
३	-9114
?	-9115
'	-9116
ओ	-9117
४	-9118
९	-9119
६	-9120
७	-9121
’	-9122
“	-9123
7	-9124
Y	-9125
V	-9126
4	-9127
”	-9128
८	-9129
6	-9130
ः	-9131
/	-9132
8	-9133
–	-9134
औ	-9135
‘	-9136
!	-9137
ऊ	-9138
$	-9139
ऐ	-9140
ऋ	-9141
%	-9142
Z	-9143
Q	-9144
—	-9145
X	-9146
\	-9147
#	-9148
<	-9149
­	-9150
=	-9151
ه	-9152
£	-9153
_	-9154
©	-9155
@	-9156
+	-9157
*	-9158
]	-9159
[	-9160
`	-9161
é	-9162
»	-9163
•	-9164
à	-9165
÷	-9166
€	-9167
¥	-9168
>	-9169
{	-9170
}	-9171
«	-9172
¤	-9173
़	-9174
·	-9175
	-9176
°	-9177
Œ	-9178
ऒ	-9179
^	-9180
á	-9181
Â	-9182
í	-9183
⁄	-9184
	-9185
ì	-9186
̊	-9187
ऽ	-9188
ॉ	-9189
Ç	-9190
	-9191
ó	-9192
	-9193
~	-9194
ˆ	-9195
	-9196
œ	-9197
ã	-9198
â	-9199
	-9200
	-9201
è	-9202
	-9203
	-9204
	-9205
	-9206
¿	-9207
ॐ	-9208
	-9209
	-9210
|	-9211
ñ	-9212
ü	-9213
ö	-9214
›	-9215
	-9216
ç	-9217
	-9218
॰	-9219
	-9220
	-9221
	-9222
¶	-9223
ï	-9224
	-9225
	-9226
	-9227
★	-9228
	-9229
ॅ	-9230
	-9231
	-9232
	-9233
	-9234
	-9235
॥	-9236
	-9237
≠	-9238
ä	-9239
ú	-9240
̈	-9241
	-9242
	-9243
×	-9244
	-9245
′	-9246
	-9247
	-9248
	-9249
	-9250
	-9251
	-9252
	-9253
	-9254
†	-9255
	-9256
	-9257
	-9258
	-9259
ê	-9260
→	-9261
	-9262
	-9263
	-9264
Ã	-9265
	-9266
ô	-9267
μ	-9268
ğ	-9269
‰	-9270
ا	-9271
ऑ	-9272
	-9273
	-9274
̧	-9275
ë	-9276
	-9277
ل	-9278
	-9279
É	-9280
ऱ	-9281
‚	-9282
	-9283
	-9284
Ô	-9285
‹	-9286
	-9287
	-9288
	-9289
Á	-9290
	-9291
	-9292
	-9293
	-9294
́	-9295
α	-9296
≈	-9297
	-9298
а	-9299
и	-9300
া	-9301
	-9302
	-9303
	-9304
	-9305
¬	-9306
®	-9307
±	-9308
―	-9309
	-9310
е	-9311
م	-9312
	-9313
	-9314
	-9315
	-9316
т	-9317
	-9318
	-9319
	-9320
	-9321
	-9322
ن	-9323
	-9324
	-9325
	-9326
	-9327
	-9328
ι	-9329
н	-9330
ر	-9331
	-9332
	-9333
	-9334
ळ	-9335
	-9336
	-9337
	-9338
	-9339
	-9340
Ò	-9341
Û	-9342
ॠ	-9343
	-9344
	-9345
	-9346
о	-9347
р	-9348
	-9349
	-9350
	-9351
Þ	-9352
্	-9353
ò	-9354
ی	-9355
॒	-9356
র	-9357
	-9358
	-9359
	-9360
ø	-9361
ت	-9362
د	-9363
ॊ	-9364
	-9365
	-9366
	-9367
	-9368
ń	-9369
ō	-9370
˗	-9371
β	-9372
ρ	-9373
ب	-9374
▲	-9375
	-9376
	-9377
	-9378
	-9379
	-9380
	-9381
ς	-9382
τ	-9383
в	-9384
к	-9385
с	-9386
ר	-9387
‬	-9388
‽	-9389
	-9390
	-9391
	-9392
Í	-9393
Ø	-9394
π	-9395
س	-9396
و	-9397
ন	-9398
	-9399
	-9400
	-9401
	-9402
	-9403
	-9404
È	-9405
ā	-9406
Š	-9407
š	-9408
θ	-9409
κ	-9410
М	-9411
গ	-9412
দ	-9413
ে	-9414
‪	-9415
−	-9416
	-9417
¦	-9418
æ	-9419
û	-9420
ž	-9421
ε	-9422
λ	-9423
ο	-9424
א	-9425
ي	-9426
۞	-9427
ऍ	-9428
॔	-9429
ব	-9430
ল	-9431
স	-9432
ি	-9433
้	-9434
	-9435
	-9436
	-9437
	-9438
	-9439
Ï	-9440
Ö	-9441
î	-9442
ù	-9443
ł	-9444
ά	-9445
ॄ	-9446
ম	-9447
য	-9448
ী	-9449
്	-9450
ม	-9451
の	-9452
山	-9453
	-9454
	-9455
	-9456
	-9457
	-9458
	-9459
	-9460
	-9461
Ù	-9462
ă	-9463
η	-9464
ν	-9465
σ	-9466
у	-9467
ة	-9468
خ	-9469
ف	-9470
ق	-9471
জ	-9472
়	-9473
ু	-9474
்	-9475
ร	-9476
་	-9477
„	-9478
■	-9479
ゃ	-9480
ん	-9481
キ	-9482
藏	-9483
	-9484
	-9485
️	-9486
¡	-9487
¢	-9488
Ä	-9489
Å	-9490
ß	-9491
å	-9492
Ş	-9493
ş	-9494
Ţ	-9495
ţ	-9496
Μ	-9497
ύ	-9498
г	-9499
з	-9500
л	-9501
м	-9502
ц	-9503
ו	-9504
י	-9505
ع	-9506
ك	-9507
ॆ	-9508
॑	-9509
ੰ	-9510
ജ	-9511
්	-9512
ต	-9513
า	-9514
‐	-9515
₪	-9516
●	-9517
⚡	-9518
「	-9519
」	-9520
ち	-9521
な	-9522
ア	-9523
ラ	-9524
不	-9525
便	-9526
地	-9527
所	-9528
浄	-9529
	-9530
	-9531
	-9532
	-9533
	-9534
	-9535
	-9536
	-9537
	-9538
	-9539
	-9540
	-9541
💦	-9542
Ó	-9543
Ú	-9544
Ü	-9545
ð	-9546
õ	-9547
ý	-9548
þ	-9549
ÿ	-9550
ū	-9551
ː	-9552
̃	-9553
δ	-9554
υ	-9555
ό	-9556
й	-9557
ל	-9558
פ	-9559
ק	-9560
ש	-9561
ת	-9562
ح	-9563
ہ	-9564
ऩ	-9565
ক	-9566
ত	-9567
প	-9568
হ	-9569
્	-9570
ர	-9571
ா	-9572
ி	-9573
ర	-9574
్	-9575
න	-9576
ල	-9577
ි	-9578
ง	-9579
น	-9580
พ	-9581
ส	-9582
₹	-9583
∙	-9584
√	-9585
∞	-9586
∶	-9587
☺	-9588
♥	-9589
々	-9590
ー	-9591
宵	-9592
西	-9593
	-9594
	-9595
	-9596
	-9597
	-9598
	-9599
	-9600
	-9601
À	-9602
Æ	-9603
Ê	-9604
Ë	-9605
Ì	-9606
Î	-9607
Ð	-9608
Ñ	-9609
Õ	-9610
Ý	-9611
Ă	-9612
č	-9613
ŏ	-9614
έ	-9615
ή	-9616
ί	-9617
ζ	-9618
ξ	-9619
В	-9620
д	-9621
ч	-9622
ш	-9623
ю	-9624
ב	-9625
ן	-9626
נ	-9627
ز	-9628
ص	-9629
غ	-9630
ٹ	-9631
پ	-9632
گ	-9633
۩	-9634
ऎ	-9635
ং	-9636
ই	-9637
ঙ	-9638
চ	-9639
ড	-9640
ਨ	-9641
ਮ	-9642
ਰ	-9643
ਸ	-9644
ક	-9645
ષ	-9646
ச	-9647
த	-9648
ன	-9649
ய	-9650
ஸ	-9651
ு	-9652
ు	-9653
ബ	-9654
ാ	-9655
ി	-9656
ോ	-9657
ත	-9658
ද	-9659
ා	-9660
ේ	-9661
ค	-9662
ช	-9663
บ	-9664
ล	-9665
ะ	-9666
ั	-9667
ุ	-9668
เ	-9669
ไ	-9670
ບ	-9671
ḥ	-9672
ὰ	-9673
₫	-9674
▽	-9675
♣	-9676
♫	-9677
❁	-9678
⭐	-9679
い	-9680
う	-9681
さ	-9682
た	-9683
っ	-9684
に	-9685
め	-9686
よ	-9687
れ	-9688
を	-9689
ネ	-9690
ノ	-9691
一	-9692
三	-9693
世	-9694
人	-9695
住	-9696
公	-9697
区	-9698
吐	-9699
営	-9700
坊	-9701
型	-9702
大	-9703
宅	-9704
害	-9705
弾	-9706
戦	-9707
新	-9708
材	-9709
次	-9710
汚	-9711
溜	-9712
災	-9713
爆	-9714
界	-9715
禾	-9716
秒	-9717
第	-9718
肥	-9719
航	-9720
蕃	-9721
逸	-9722
離	-9723
飯	-9724
다	-9725
주	-9726
	-9727
	-9728
	-9729
	-9730
	-9731
	-9732
	-9733
	-9734
	-9735
	-9736
	-9737
	-9738
🏻	-9739
😃	-9740
🙂	-9741
🤔	-9742
	-9743
ę	-9744
ī	-9745
Ō	-9746
ő	-9747
Ř	-9748
ś	-9749
ƒ	-9750
ǎ	-9751
ǒ	-9752
ǔ	-9753
ǧ	-9754
Β	-9755
Η	-9756
γ	-9757
φ	-9758
χ	-9759
б	-9760
п	-9761
ф	-9762
х	-9763
щ	-9764
ы	-9765
ג	-9766
ח	-9767
ט	-9768
מ	-9769
ע	-9770
ؘ	-9771
ء	-9772
أ	-9773
ج	-9774
ش	-9775
ى	-9776
ُ	-9777
ښ	-9778
ک	-9779
ھ	-9780
ې	-9781
ے	-9782
ހ	-9783
ދ	-9784
ތ	-9785
ަ	-9786
ި	-9787
ޫ	-9788
ऌ	-9789
ॱ	-9790
ঁ	-9791
আ	-9792
ও	-9793
ছ	-9794
ঞ	-9795
ট	-9796
ধ	-9797
ফ	-9798
শ	-9799
ষ	-9800
ো	-9801
১	-9802
ৰ	-9803
ৱ	-9804
৷	-9805
ਗ	-9806
ਘ	-9807
ਜ	-9808
ਤ	-9809
ਦ	-9810
ਧ	-9811
ਬ	-9812
ਲ	-9813
ਹ	-9814
ਿ	-9815
ੀ	-9816
ੇ	-9817
ੋ	-9818
જ	-9819
ઞ	-9820
િ	-9821
ે	-9822
க	-9823
ப	-9824
ற	-9825
ள	-9826
ழ	-9827
வ	-9828
ீ	-9829
ே	-9830
గ	-9831
త	-9832
థ	-9833
న	-9834
మ	-9835
శ	-9836
హ	-9837
ా	-9838
ి	-9839
ొ	-9840
അ	-9841
ഖ	-9842
ഞ	-9843
ന	-9844
യ	-9845
ര	-9846
റ	-9847
സ	-9848
ു	-9849
ක	-9850
ග	-9851
ම	-9852
ය	-9853
ර	-9854
ෂ	-9855
ස	-9856
ු	-9857
ก	-9858
ข	-9859
ญ	-9860
ฐ	-9861
ณ	-9862
ท	-9863
ป	-9864
ฟ	-9865
ย	-9866
อ	-9867
ี	-9868
โ	-9869
ํ	-9870
ງ	-9871
ນ	-9872
ຟ	-9873
ັ	-9874
ຸ	-9875
ໄ	-9876
້	-9877
ཎ	-9878
ད	-9879
པ	-9880
མ	-9881
ཧ	-9882
ཨ	-9883
ི	-9884
ུ	-9885
ེ	-9886
ོ	-9887
ཾ	-9888
ྃ	-9889
ྨ	-9890
ᅳ	-9891
ṛ	-9892
ễ	-9893
ἀ	-9894
ἅ	-9895
∈	-9896
∕	-9897
□	-9898
♂	-9899
♏	-9900
♦	-9901
✄	-9902
✨	-9903
➡	-9904
お	-9905
か	-9906
く	-9907
し	-9908
じ	-9909
ぺ	-9910
ょ	-9911
り	-9912
イ	-9913
オ	-9914
ガ	-9915
シ	-9916
ズ	-9917
タ	-9918
ル	-9919
レ	-9920
下	-9921
京	-9922
力	-9923
卓	-9924
喜	-9925
国	-9926
國	-9927
多	-9928
奧	-9929
宮	-9930
岡	-9931
巡	-9932
弃	-9933
族	-9934
星	-9935
暴	-9936
有	-9937
東	-9938
樂	-9939
気	-9940
水	-9941
油	-9942
疾	-9943
站	-9944
者	-9945
能	-9946
行	-9947
豚	-9948
走	-9949
超	-9950
辛	-9951
遥	-9952
酢	-9953
醤	-9954
金	-9955
鉾	-9956
霊	-9957
音	-9958
骨	-9959
鮨	-9960
금	-9961
도	-9962
럭	-9963
마	-9964
바	-9965
법	-9966
사	-9967
산	-9968
성	-9969
식	-9970
음	-9971
이	-9972
인	-9973
제	-9974
케	-9975
키	-9976
티	-9977
회	-9978
	-9979
	-9980
	-9981
	-9982
	-9983
	-9984
	-9985
	-9986
	-9987
	-9988
	-9989
	-9990
	-9991
	-9992
	-9993
	-9994
🇯	-9995
🇵	-9996
